{
  "version": "1.0",
  "truncation": null,
  "padding": null,
  "added_tokens": [
    {
      "id": 0,
      "content": "[UNK]",
      "single_word": false,
      "lstrip": false,
      "rstrip": false,
      "normalized": false,
      "special": true
    },
    {
      "id": 1,
      "content": "[PAD]",
      "single_word": false,
      "lstrip": false,
      "rstrip": false,
      "normalized": false,
      "special": true
    },
    {
      "id": 2,
      "content": "[SOS]",
      "single_word": false,
      "lstrip": false,
      "rstrip": false,
      "normalized": false,
      "special": true
    },
    {
      "id": 3,
      "content": "[EOS]",
      "single_word": false,
      "lstrip": false,
      "rstrip": false,
      "normalized": false,
      "special": true
    }
  ],
  "normalizer": null,
  "pre_tokenizer": {
    "type": "Whitespace"
  },
  "post_processor": null,
  "decoder": null,
  "model": {
    "type": "BPE",
    "dropout": null,
    "unk_token": "[UNK]",
    "continuing_subword_prefix": null,
    "end_of_word_suffix": null,
    "fuse_unk": false,
    "byte_fallback": false,
    "ignore_merges": false,
    "vocab": {
      "[UNK]": 0,
      "[PAD]": 1,
      "[SOS]": 2,
      "[EOS]": 3,
      "!": 4,
      "\"": 5,
      "$": 6,
      "'": 7,
      ",": 8,
      "-": 9,
      ".": 10,
      "0": 11,
      "1": 12,
      "2": 13,
      "3": 14,
      "4": 15,
      "5": 16,
      "6": 17,
      "7": 18,
      "8": 19,
      "9": 20,
      ":": 21,
      ";": 22,
      "?": 23,
      "A": 24,
      "B": 25,
      "C": 26,
      "D": 27,
      "E": 28,
      "F": 29,
      "G": 30,
      "H": 31,
      "I": 32,
      "J": 33,
      "K": 34,
      "L": 35,
      "M": 36,
      "N": 37,
      "O": 38,
      "P": 39,
      "Q": 40,
      "R": 41,
      "S": 42,
      "T": 43,
      "U": 44,
      "V": 45,
      "W": 46,
      "X": 47,
      "Y": 48,
      "Z": 49,
      "a": 50,
      "b": 51,
      "c": 52,
      "d": 53,
      "e": 54,
      "f": 55,
      "g": 56,
      "h": 57,
      "i": 58,
      "j": 59,
      "k": 60,
      "l": 61,
      "m": 62,
      "n": 63,
      "o": 64,
      "p": 65,
      "q": 66,
      "r": 67,
      "s": 68,
      "t": 69,
      "u": 70,
      "v": 71,
      "w": 72,
      "x": 73,
      "y": 74,
      "z": 75,
      "¡": 76,
      "¦": 77,
      "©": 78,
      "«": 79,
      "±": 80,
      "³": 81,
      "»": 82,
      "Â": 83,
      "Ã": 84,
      "â": 85,
      "œ": 86,
      "˜": 87,
      "“": 88,
      "”": 89,
      "€": 90,
      "™": 91,
      "he": 92,
      "an": 93,
      "the": 94,
      "ed": 95,
      "in": 96,
      "and": 97,
      "to": 98,
      "wa": 99,
      "re": 100,
      "it": 101,
      "ou": 102,
      "er": 103,
      "ha": 104,
      "was": 105,
      "en": 106,
      "on": 107,
      "ar": 108,
      "ing": 109,
      "om": 110,
      "is": 111,
      "The": 112,
      "id": 113,
      "le": 114,
      "sa": 115,
      "ll": 116,
      "ay": 117,
      "im": 118,
      "st": 119,
      "or": 120,
      "lo": 121,
      "il": 122,
      "th": 123,
      "her": 124,
      "He": 125,
      "ir": 126,
      "ver": 127,
      "ne": 128,
      "be": 129,
      "She": 130,
      "hat": 131,
      "ld": 132,
      "ut": 133,
      "ce": 134,
      "ck": 135,
      "se": 136,
      "she": 137,
      "at": 138,
      "so": 139,
      "said": 140,
      "ow": 141,
      "ig": 142,
      "am": 143,
      "ke": 144,
      "pp": 145,
      "his": 146,
      "of": 147,
      "ve": 148,
      "pl": 149,
      "ith": 150,
      "ad": 151,
      "ked": 152,
      "ri": 153,
      "all": 154,
      "day": 155,
      "very": 156,
      "with": 157,
      "un": 158,
      "They": 159,
      "ome": 160,
      "up": 161,
      "ot": 162,
      "al": 163,
      "as": 164,
      "that": 165,
      "ted": 166,
      "we": 167,
      "had": 168,
      "my": 169,
      "you": 170,
      "li": 171,
      "ch": 172,
      "nd": 173,
      "ily": 174,
      "itt": 175,
      "ould": 176,
      "for": 177,
      "fe": 178,
      "ent": 179,
      "ge": 180,
      "play": 181,
      "they": 182,
      "ime": 183,
      "ly": 184,
      "time": 185,
      "ittle": 186,
      "ound": 187,
      "end": 188,
      "little": 189,
      "happ": 190,
      "mom": 191,
      "bo": 192,
      "there": 193,
      "Lily": 194,
      "sm": 195,
      "es": 196,
      "out": 197,
      "ht": 198,
      "wan": 199,
      "go": 200,
      "ther": 201,
      "ok": 202,
      "ra": 203,
      "sh": 204,
      "thing": 205,
      "ack": 206,
      "It": 207,
      "happy": 208,
      "one": 209,
      "On": 210,
      "big": 211,
      "ro": 212,
      "do": 213,
      "but": 214,
      "ter": 215,
      "some": 216,
      "Once": 217,
      "saw": 218,
      "One": 219,
      "riend": 220,
      "friend": 221,
      "ved": 222,
      "ry": 223,
      "way": 224,
      "fu": 225,
      "irl": 226,
      "are": 227,
      "ug": 228,
      "girl": 229,
      "ide": 230,
      "ake": 231,
      "ex": 232,
      "pe": 233,
      "were": 234,
      "ill": 235,
      "upon": 236,
      "him": 237,
      "not": 238,
      "Tim": 239,
      "!\"": 240,
      ".\"": 241,
      "wanted": 242,
      "ho": 243,
      "could": 244,
      "od": 245,
      "hen": 246,
      "ag": 247,
      "ind": 248,
      "et": 249,
      "car": 250,
      "de": 251,
      "ur": 252,
      "went": 253,
      "um": 254,
      "mo": 255,
      "iled": 256,
      "ful": 257,
      "ab": 258,
      "me": 259,
      "rom": 260,
      "lp": 261,
      "new": 262,
      "co": 263,
      "hed": 264,
      "smiled": 265,
      "ight": 266,
      "around": 267,
      "them": 268,
      "fo": 269,
      "ic": 270,
      "ain": 271,
      "nam": 272,
      "friends": 273,
      "help": 274,
      "oug": 275,
      "ran": 276,
      "back": 277,
      "star": 278,
      "did": 279,
      "side": 280,
      "can": 281,
      "But": 282,
      "lt": 283,
      "ard": 284,
      "loo": 285,
      "have": 286,
      "asked": 287,
      "?\"": 288,
      "their": 289,
      "ark": 290,
      "fun": 291,
      "looked": 292,
      "boy": 293,
      "pr": 294,
      "man": 295,
      "ure": 296,
      "Tom": 297,
      "sto": 298,
      "would": 299,
      "la": 300,
      "felt": 301,
      "loved": 302,
      "named": 303,
      "own": 304,
      "wor": 305,
      "ick": 306,
      "Timmy": 307,
      "ame": 308,
      "ited": 309,
      "Ben": 310,
      "ree": 311,
      "exc": 312,
      "something": 313,
      "too": 314,
      "like": 315,
      "ong": 316,
      "bir": 317,
      "started": 318,
      "op": 319,
      "fa": 320,
      "no": 321,
      "gether": 322,
      "bird": 323,
      "see": 324,
      "gr": 325,
      "ca": 326,
      "el": 327,
      "ys": 328,
      "sp": 329,
      "ts": 330,
      "away": 331,
      "pped": 332,
      "ade": 333,
      "excited": 334,
      "together": 335,
      "ice": 336,
      "ud": 337,
      "oud": 338,
      "ci": 339,
      "ss": 340,
      "what": 341,
      "then": 342,
      "make": 343,
      "other": 344,
      "now": 345,
      "home": 346,
      "get": 347,
      "by": 348,
      "came": 349,
      "You": 350,
      "wal": 351,
      "look": 352,
      "Mom": 353,
      "ally": 354,
      "made": 355,
      "qu": 356,
      "ie": 357,
      "got": 358,
      "found": 359,
      "mu": 360,
      "park": 361,
      "again": 362,
      "from": 363,
      ",\"": 364,
      "dec": 365,
      "when": 366,
      "put": 367,
      "Jo": 368,
      "who": 369,
      "if": 370,
      "ought": 371,
      "every": 372,
      "br": 373,
      "king": 374,
      "ous": 375,
      "old": 376,
      "jo": 377,
      "spe": 378,
      "playing": 379,
      "sad": 380,
      "So": 381,
      "ep": 382,
      "udd": 383,
      "ile": 384,
      "ided": 385,
      "decided": 386,
      "low": 387,
      "scar": 388,
      "ach": 389,
      "bu": 390,
      "ru": 391,
      "good": 392,
      "more": 393,
      "wo": 394,
      "things": 395,
      "ave": 396,
      "ried": 397,
      "te": 398,
      "ouse": 399,
      "ny": 400,
      "than": 401,
      "bb": 402,
      "ways": 403,
      "down": 404,
      "feel": 405,
      "find": 406,
      "udden": 407,
      "der": 408,
      "wh": 409,
      "hug": 410,
      "Jack": 411,
      "take": 412,
      "Every": 413,
      "speci": 414,
      "When": 415,
      "want": 416,
      "special": 417,
      "ac": 418,
      "har": 419,
      "uddenly": 420,
      "tree": 421,
      "here": 422,
      "always": 423,
      "use": 424,
      "fore": 425,
      "ite": 426,
      "scared": 427,
      "na": 428,
      "care": 429,
      "thought": 430,
      "clo": 431,
      "lly": 432,
      "our": 433,
      "ate": 434,
      "about": 435,
      "dad": 436,
      "ust": 437,
      "never": 438,
      "took": 439,
      "ear": 440,
      "ened": 441,
      "didn": 442,
      "ise": 443,
      "liked": 444,
      "laug": 445,
      "fter": 446,
      "po": 447,
      "ret": 448,
      "ue": 449,
      "ant": 450,
      "cat": 451,
      "knew": 452,
      "room": 453,
      "ven": 454,
      "dog": 455,
      "your": 456,
      "outside": 457,
      "Suddenly": 458,
      "ma": 459,
      "ers": 460,
      "uc": 461,
      "sk": 462,
      "lear": 463,
      "bl": 464,
      "us": 465,
      "couldn": 466,
      "how": 467,
      "able": 468,
      "ned": 469,
      "ara": 470,
      "much": 471,
      "ged": 472,
      "ty": 473,
      "dre": 474,
      "sun": 475,
      "Her": 476,
      "any": 477,
      "come": 478,
      "lf": 479,
      "ion": 480,
      "into": 481,
      "Sam": 482,
      "over": 483,
      "ish": 484,
      "ive": 485,
      "know": 486,
      "proud": 487,
      "ball": 488,
      "His": 489,
      "this": 490,
      "show": 491,
      "reat": 492,
      "vent": 493,
      "ough": 494,
      "ct": 495,
      "long": 496,
      "hn": 497,
      "John": 498,
      "Let": 499,
      "heard": 500,
      "Ma": 501,
      "cl": 502,
      "mommy": 503,
      "says": 504,
      "house": 505,
      "pa": 506,
      "Sara": 507,
      "inside": 508,
      "ning": 509,
      "fly": 510,
      "ang": 511,
      "war": 512,
      "We": 513,
      "call": 514,
      "pu": 515,
      "ob": 516,
      "ist": 517,
      "toy": 518,
      "run": 519,
      "ta": 520,
      "will": 521,
      "unt": 522,
      "rabb": 523,
      "com": 524,
      "Then": 525,
      "gave": 526,
      "Max": 527,
      "hand": 528,
      "told": 529,
      "off": 530,
      "ving": 531,
      "toys": 532,
      "small": 533,
      "just": 534,
      "water": 535,
      "An": 536,
      "wat": 537,
      "sw": 538,
      "bea": 539,
      "self": 540,
      "ama": 541,
      "cause": 542,
      "pick": 543,
      "try": 544,
      "exp": 545,
      "ber": 546,
      "until": 547,
      "From": 548,
      "ace": 549,
      "That": 550,
      "What": 551,
      "beaut": 552,
      "tried": 553,
      "flow": 554,
      "thanked": 555,
      "€™": 556,
      "read": 557,
      "because": 558,
      "ump": 559,
      "pt": 560,
      "ink": 561,
      "lots": 562,
      "che": 563,
      "gard": 564,
      "joy": 565,
      "garden": 566,
      "dy": 567,
      "tter": 568,
      "played": 569,
      "even": 570,
      "sur": 571,
      "Luc": 572,
      "need": 573,
      "shin": 574,
      "Lucy": 575,
      "sha": 576,
      "col": 577,
      "eat": 578,
      "red": 579,
      "per": 580,
      "box": 581,
      "And": 582,
      "cle": 583,
      "beauti": 584,
      "lad": 585,
      "beautiful": 586,
      "its": 587,
      "called": 588,
      "hugged": 589,
      "iz": 590,
      "laughed": 591,
      "ass": 592,
      "best": 593,
      "Anna": 594,
      "sky": 595,
      "two": 596,
      "lew": 597,
      "sor": 598,
      "bear": 599,
      "yes": 600,
      "imal": 601,
      "animal": 602,
      "Mommy": 603,
      "fast": 604,
      "explo": 605,
      "bra": 606,
      "where": 607,
      "Bob": 608,
      "pret": 609,
      "each": 610,
      "explore": 611,
      "ol": 612,
      "fin": 613,
      "As": 614,
      "nt": 615,
      "won": 616,
      "ane": 617,
      "ched": 618,
      "don": 619,
      "bed": 620,
      "lived": 621,
      "ell": 622,
      "nice": 623,
      "better": 624,
      "fam": 625,
      "advent": 626,
      "rong": 627,
      "uck": 628,
      "igh": 629,
      "kept": 630,
      "many": 631,
      "both": 632,
      "Yes": 633,
      "After": 634,
      "surpr": 635,
      "kind": 636,
      "smile": 637,
      "ft": 638,
      "jump": 639,
      "con": 640,
      "feeling": 641,
      "year": 642,
      "stay": 643,
      "cu": 644,
      "fi": 645,
      "flew": 646,
      "safe": 647,
      "love": 648,
      "mum": 649,
      "app": 650,
      "place": 651,
      "soon": 652,
      "brave": 653,
      "ia": 654,
      "tru": 655,
      "imp": 656,
      "walked": 657,
      "ised": 658,
      "clos": 659,
      "still": 660,
      "adventure": 661,
      "ground": 662,
      "family": 663,
      "ting": 664,
      "iced": 665,
      "far": 666,
      "under": 667,
      "before": 668,
      "careful": 669,
      "hard": 670,
      "learned": 671,
      "mor": 672,
      "rain": 673,
      "ople": 674,
      "animals": 675,
      "loud": 676,
      "let": 677,
      "Jane": 678,
      "keep": 679,
      "sorry": 680,
      "walking": 681,
      "ded": 682,
      "going": 683,
      "ild": 684,
      "ine": 685,
      "work": 686,
      "ste": 687,
      "illy": 688,
      "nod": 689,
      "list": 690,
      "stopped": 691,
      "people": 692,
      "noticed": 693,
      "gan": 694,
      "quick": 695,
      "Dad": 696,
      "ied": 697,
      "three": 698,
      "ever": 699,
      "olly": 700,
      "ank": 701,
      "amaz": 702,
      "ished": 703,
      "tur": 704,
      "lea": 705,
      "opened": 706,
      "wind": 707,
      "everyone": 708,
      "ort": 709,
      "set": 710,
      "looking": 711,
      "Joe": 712,
      "while": 713,
      "hur": 714,
      "vo": 715,
      "Can": 716,
      "ble": 717,
      "quickly": 718,
      "ught": 719,
      "dis": 720,
      "mber": 721,
      "tre": 722,
      "door": 723,
      "give": 724,
      "enjoy": 725,
      "idea": 726,
      "fish": 727,
      "thr": 728,
      "led": 729,
      "Mia": 730,
      "great": 731,
      "isy": 732,
      "wonder": 733,
      "ummy": 734,
      "should": 735,
      "nex": 736,
      "cre": 737,
      "real": 738,
      "right": 739,
      "bye": 740,
      "shiny": 741,
      "been": 742,
      "face": 743,
      "lot": 744,
      "voice": 745,
      "next": 746,
      "rabbit": 747,
      "reme": 748,
      "bright": 749,
      "night": 750,
      "repl": 751,
      "walk": 752,
      "picked": 753,
      "No": 754,
      "weet": 755,
      "sho": 756,
      "eyes": 757,
      "art": 758,
      "pot": 759,
      "nodded": 760,
      "Th": 761,
      "forest": 762,
      "after": 763,
      "curi": 764,
      "uch": 765,
      "near": 766,
      "replied": 767,
      "squ": 768,
      "clean": 769,
      "say": 770,
      "rock": 771,
      "goodbye": 772,
      "remember": 773,
      "noise": 774,
      "light": 775,
      "Everyone": 776,
      "began": 777,
      "pretty": 778,
      "closer": 779,
      "cry": 780,
      "ip": 781,
      "lie": 782,
      "share": 783,
      "curious": 784,
      "Thank": 785,
      "book": 786,
      "Molly": 787,
      "gre": 788,
      "ready": 789,
      "ered": 790,
      "less": 791,
      "hands": 792,
      "aisy": 793,
      "pic": 794,
      "pain": 795,
      "head": 796,
      "food": 797,
      "blue": 798,
      "irst": 799,
      "bro": 800,
      "expl": 801,
      "bad": 802,
      "dra": 803,
      "tin": 804,
      "bit": 805,
      "ds": 806,
      "dif": 807,
      "sound": 808,
      "watched": 809,
      "ner": 810,
      "Sue": 811,
      "cho": 812,
      "truck": 813,
      "color": 814,
      "tal": 815,
      "wait": 816,
      "rest": 817,
      "mag": 818,
      "being": 819,
      "Daisy": 820,
      "cha": 821,
      "top": 822,
      "world": 823,
      "strong": 824,
      "ired": 825,
      "ak": 826,
      "boat": 827,
      "Sarah": 828,
      "watch": 829,
      "doll": 830,
      "mon": 831,
      "llow": 832,
      "ster": 833,
      "became": 834,
      "clim": 835,
      "sy": 836,
      "sure": 837,
      "les": 838,
      "leave": 839,
      "flower": 840,
      "through": 841,
      "store": 842,
      "ff": 843,
      "ask": 844,
      "yell": 845,
      "ary": 846,
      "years": 847,
      "This": 848,
      "angry": 849,
      "Lo": 850,
      "butter": 851,
      "mouse": 852,
      "pare": 853,
      "hurt": 854,
      "In": 855,
      "hopped": 856,
      "sing": 857,
      "lock": 858,
      "showed": 859,
      "flowers": 860,
      "fill": 861,
      "grabb": 862,
      "cou": 863,
      "tor": 864,
      "seen": 865,
      "ached": 866,
      "ies": 867,
      "sed": 868,
      "follow": 869,
      "anc": 870,
      "why": 871,
      "fere": 872,
      "stand": 873,
      "differe": 874,
      "warm": 875,
      "grabbed": 876,
      "ash": 877,
      "import": 878,
      "first": 879,
      "Jim": 880,
      "deli": 881,
      "Em": 882,
      "ture": 883,
      "waved": 884,
      "tell": 885,
      "ph": 886,
      "also": 887,
      "magic": 888,
      "high": 889,
      "med": 890,
      "name": 891,
      "jumped": 892,
      "Sally": 893,
      "leep": 894,
      "happened": 895,
      "fully": 896,
      "listen": 897,
      "zy": 898,
      "having": 899,
      "dress": 900,
      "different": 901,
      "important": 902,
      "really": 903,
      "bow": 904,
      "ized": 905,
      "stran": 906,
      "tired": 907,
      "shar": 908,
      "bug": 909,
      "To": 910,
      "laugh": 911,
      "nts": 912,
      "wood": 913,
      "game": 914,
      "ond": 915,
      "grass": 916,
      "mer": 917,
      "ung": 918,
      "Don": 919,
      "picture": 920,
      "parents": 921,
      "running": 922,
      "sl": 923,
      "outed": 924,
      "ppy": 925,
      "air": 926,
      "cket": 927,
      "surprise": 928,
      "done": 929,
      "reached": 930,
      "llo": 931,
      "Fin": 932,
      "ket": 933,
      "lady": 934,
      "Spot": 935,
      "din": 936,
      "unny": 937,
      "shouted": 938,
      "Tommy": 939,
      "ange": 940,
      "himself": 941,
      "lease": 942,
      "\".": 943,
      "sn": 944,
      "ings": 945,
      "fire": 946,
      "open": 947,
      "think": 948,
      "Now": 949,
      "Look": 950,
      "fro": 951,
      "ple": 952,
      "ba": 953,
      "dro": 954,
      "kid": 955,
      "coming": 956,
      "At": 957,
      "bre": 958,
      "bor": 959,
      "There": 960,
      "Do": 961,
      "enjoyed": 962,
      "Wh": 963,
      "par": 964,
      "tw": 965,
      "table": 966,
      "story": 967,
      "filled": 968,
      "glad": 969,
      "pie": 970,
      "andy": 971,
      "carefully": 972,
      "ries": 973,
      "helped": 974,
      "only": 975,
      "used": 976,
      "dren": 977,
      "oon": 978,
      "ildren": 979,
      "children": 980,
      "wonderful": 981,
      "cream": 982,
      "sand": 983,
      "birds": 984,
      "age": 985,
      "uff": 986,
      "anymore": 987,
      "lled": 988,
      "morning": 989,
      "cr": 990,
      "tr": 991,
      "arri": 992,
      "shed": 993,
      "green": 994,
      "fl": 995,
      "gu": 996,
      "ance": 997,
      "stick": 998,
      "slow": 999,
      "rel": 1000,
      "happily": 1001,
      "times": 1002,
      "dark": 1003,
      "fr": 1004,
      "itc": 1005,
      "cook": 1006,
      "worked": 1007,
      "tra": 1008,
      "bar": 1009,
      "full": 1010,
      "catch": 1011,
      "mis": 1012,
      "mother": 1013,
      "kitc": 1014,
      "sweet": 1015,
      "kitchen": 1016,
      "Jill": 1017,
      "ess": 1018,
      "dri": 1019,
      "flo": 1020,
      "worry": 1021,
      "fav": 1022,
      "mar": 1023,
      "brother": 1024,
      "strange": 1025,
      "ger": 1026,
      "je": 1027,
      "butterfly": 1028,
      "frog": 1029,
      "cra": 1030,
      "sat": 1031,
      "herself": 1032,
      "aby": 1033,
      "ation": 1034,
      "move": 1035,
      "spot": 1036,
      "aybe": 1037,
      "andma": 1038,
      "race": 1039,
      "res": 1040,
      "surprised": 1041,
      "arrived": 1042,
      "pet": 1043,
      "ued": 1044,
      "amazing": 1045,
      "cious": 1046,
      "hear": 1047,
      "reed": 1048,
      "Finally": 1049,
      "bunny": 1050,
      "tall": 1051,
      "okay": 1052,
      "pond": 1053,
      "enough": 1054,
      "ross": 1055,
      "mean": 1056,
      "explor": 1057,
      "hind": 1058,
      "yummy": 1059,
      "plan": 1060,
      "dream": 1061,
      "kids": 1062,
      "cor": 1063,
      "soft": 1064,
      "finished": 1065,
      "cla": 1066,
      "wel": 1067,
      "most": 1068,
      "making": 1069,
      "piece": 1070,
      "fect": 1071,
      "prin": 1072,
      "cut": 1073,
      "agreed": 1074,
      "Amy": 1075,
      "remembered": 1076,
      "hid": 1077,
      "fell": 1078,
      "learn": 1079,
      "contin": 1080,
      "trees": 1081,
      "creat": 1082,
      "getting": 1083,
      "delicious": 1084,
      "ined": 1085,
      "has": 1086,
      "few": 1087,
      "perfect": 1088,
      "behind": 1089,
      "key": 1090,
      "cold": 1091,
      "stop": 1092,
      "prom": 1093,
      "sleep": 1094,
      "tle": 1095,
      "lion": 1096,
      "swim": 1097,
      "yellow": 1098,
      "ze": 1099,
      "ila": 1100,
      "close": 1101,
      "Jen": 1102,
      "trying": 1103,
      "tow": 1104,
      "ater": 1105,
      "Lila": 1106,
      "anything": 1107,
      "gon": 1108,
      "gone": 1109,
      "vis": 1110,
      "yard": 1111,
      "funny": 1112,
      "asure": 1113,
      "realized": 1114,
      "woods": 1115,
      "ment": 1116,
      "oo": 1117,
      "ped": 1118,
      "fox": 1119,
      "fair": 1120,
      "Billy": 1121,
      "ather": 1122,
      "hair": 1123,
      "ated": 1124,
      "tast": 1125,
      "continued": 1126,
      "Jimmy": 1127,
      "slide": 1128,
      "friendly": 1129,
      "hole": 1130,
      "mus": 1131,
      "held": 1132,
      "wear": 1133,
      "puppy": 1134,
      "finally": 1135,
      "draw": 1136,
      "ign": 1137,
      "wrong": 1138,
      "touch": 1139,
      "left": 1140,
      "bee": 1141,
      "deep": 1142,
      "que": 1143,
      "wards": 1144,
      "Mama": 1145,
      "gent": 1146,
      "bot": 1147,
      "ike": 1148,
      "irrel": 1149,
      "needed": 1150,
      "followed": 1151,
      "cake": 1152,
      "ually": 1153,
      "pping": 1154,
      "icy": 1155,
      "Maybe": 1156,
      "ious": 1157,
      "doing": 1158,
      "fix": 1159,
      "appear": 1160,
      "baby": 1161,
      "moment": 1162,
      "thank": 1163,
      "leaves": 1164,
      "ient": 1165,
      "looks": 1166,
      "block": 1167,
      "fur": 1168,
      "cover": 1169,
      "Why": 1170,
      "pretend": 1171,
      "met": 1172,
      "sear": 1173,
      "brought": 1174,
      "squirrel": 1175,
      "oney": 1176,
      "buy": 1177,
      "Hello": 1178,
      "Wow": 1179,
      "cool": 1180,
      "All": 1181,
      "ield": 1182,
      "Soon": 1183,
      "window": 1184,
      "magical": 1185,
      "white": 1186,
      "climb": 1187,
      "favor": 1188,
      "hill": 1189,
      "lar": 1190,
      "stepped": 1191,
      "tight": 1192,
      "wr": 1193,
      "str": 1194,
      "lesson": 1195,
      "favorite": 1196,
      "Gr": 1197,
      "Mary": 1198,
      "av": 1199,
      "another": 1200,
      "someone": 1201,
      "swing": 1202,
      "stayed": 1203,
      "duck": 1204,
      "build": 1205,
      "flying": 1206,
      "lice": 1207,
      "dinner": 1208,
      "danc": 1209,
      "ng": 1210,
      "wasn": 1211,
      "bag": 1212,
      "land": 1213,
      "stre": 1214,
      "does": 1215,
      "Benny": 1216,
      "music": 1217,
      "Be": 1218,
      "everything": 1219,
      "understand": 1220,
      "sit": 1221,
      "spl": 1222,
      "erous": 1223,
      "else": 1224,
      "spark": 1225,
      "smell": 1226,
      "amazed": 1227,
      "tri": 1228,
      "lost": 1229,
      "cast": 1230,
      "pur": 1231,
      "mat": 1232,
      "song": 1233,
      "ventually": 1234,
      "farmer": 1235,
      "ling": 1236,
      "itten": 1237,
      "oken": 1238,
      "em": 1239,
      "hung": 1240,
      "slowly": 1241,
      "exploring": 1242,
      "pat": 1243,
      "arm": 1244,
      "beach": 1245,
      "row": 1246,
      "iting": 1247,
      "cess": 1248,
      "fru": 1249,
      "ames": 1250,
      "forgot": 1251,
      "balloon": 1252,
      "Daddy": 1253,
      "belie": 1254,
      "job": 1255,
      "bigger": 1256,
      "turn": 1257,
      "Mum": 1258,
      "pack": 1259,
      "wished": 1260,
      "ins": 1261,
      "cloud": 1262,
      "dir": 1263,
      "lake": 1264,
      "pen": 1265,
      "broken": 1266,
      "mi": 1267,
      "might": 1268,
      "pro": 1269,
      "uffy": 1270,
      "field": 1271,
      "answ": 1272,
      "faster": 1273,
      "poin": 1274,
      "appeared": 1275,
      "Just": 1276,
      "orange": 1277,
      "must": 1278,
      "ride": 1279,
      "waited": 1280,
      "hold": 1281,
      "across": 1282,
      "please": 1283,
      "cars": 1284,
      "join": 1285,
      "turned": 1286,
      "gi": 1287,
      "whe": 1288,
      "iling": 1289,
      "ves": 1290,
      "hor": 1291,
      "Emma": 1292,
      "cup": 1293,
      "ju": 1294,
      "mou": 1295,
      "leph": 1296,
      "pass": 1297,
      "whis": 1298,
      "zz": 1299,
      "towards": 1300,
      "ence": 1301,
      "neigh": 1302,
      "black": 1303,
      "Come": 1304,
      "ming": 1305,
      "such": 1306,
      "owl": 1307,
      "listened": 1308,
      "castle": 1309,
      "ich": 1310,
      "cked": 1311,
      "shared": 1312,
      "blocks": 1313,
      "Oh": 1314,
      "cried": 1315,
      "dr": 1316,
      "silly": 1317,
      "sec": 1318,
      "longer": 1319,
      "adventures": 1320,
      "promised": 1321,
      "alone": 1322,
      "mind": 1323,
      "sometimes": 1324,
      "cheered": 1325,
      "pers": 1326,
      "wall": 1327,
      "igg": 1328,
      "child": 1329,
      "board": 1330,
      "daddy": 1331,
      "gg": 1332,
      "pink": 1333,
      "suddenly": 1334,
      "worried": 1335,
      "clapped": 1336,
      "hot": 1337,
      "happen": 1338,
      "dang": 1339,
      "su": 1340,
      "oup": 1341,
      "others": 1342,
      "nap": 1343,
      "climbed": 1344,
      "believe": 1345,
      "scary": 1346,
      "paint": 1347,
      "ctor": 1348,
      "fight": 1349,
      "pes": 1350,
      "tail": 1351,
      "floor": 1352,
      "Mr": 1353,
      "train": 1354,
      "heav": 1355,
      "seemed": 1356,
      "kay": 1357,
      "lone": 1358,
      "pow": 1359,
      "relie": 1360,
      "ney": 1361,
      "ours": 1362,
      "treasure": 1363,
      "talk": 1364,
      "hungry": 1365,
      "hide": 1366,
      "pill": 1367,
      "swa": 1368,
      "thy": 1369,
      "river": 1370,
      "ose": 1371,
      "along": 1372,
      "ained": 1373,
      "books": 1374,
      "dragon": 1375,
      "break": 1376,
      "visit": 1377,
      "same": 1378,
      "wet": 1379,
      "qui": 1380,
      "secret": 1381,
      "lonely": 1382,
      "Hi": 1383,
      "Mummy": 1384,
      "young": 1385,
      "chool": 1386,
      "colors": 1387,
      "hig": 1388,
      "fused": 1389,
      "helping": 1390,
      "moral": 1391,
      "heavy": 1392,
      "swam": 1393,
      "itty": 1394,
      "shop": 1395,
      "pulled": 1396,
      "Pe": 1397,
      "stood": 1398,
      "pocket": 1399,
      "nearby": 1400,
      "Go": 1401,
      "pra": 1402,
      "thes": 1403,
      "stone": 1404,
      "Inside": 1405,
      "pictures": 1406,
      "bath": 1407,
      "treat": 1408,
      "sees": 1409,
      "relieved": 1410,
      "dry": 1411,
      "school": 1412,
      "sail": 1413,
      "living": 1414,
      "teac": 1415,
      "clothes": 1416,
      "itch": 1417,
      "colorful": 1418,
      "town": 1419,
      "gentle": 1420,
      "quiet": 1421,
      "Some": 1422,
      "da": 1423,
      "eleph": 1424,
      "though": 1425,
      "grow": 1426,
      "ions": 1427,
      "paper": 1428,
      "ucky": 1429,
      "tiny": 1430,
      "pieces": 1431,
      "free": 1432,
      "jour": 1433,
      "money": 1434,
      "sea": 1435,
      "doctor": 1436,
      "bucket": 1437,
      "moved": 1438,
      "everywhere": 1439,
      "higher": 1440,
      "With": 1441,
      "bran": 1442,
      "min": 1443,
      "without": 1444,
      "cave": 1445,
      "caught": 1446,
      "shine": 1447,
      "closed": 1448,
      "bike": 1449,
      "fall": 1450,
      "snow": 1451,
      "cookies": 1452,
      "Fl": 1453,
      "tent": 1454,
      "monster": 1455,
      "des": 1456,
      "ister": 1457,
      "start": 1458,
      "mix": 1459,
      "Tweet": 1460,
      "ee": 1461,
      "likes": 1462,
      "eating": 1463,
      "ek": 1464,
      "rot": 1465,
      "exciting": 1466,
      "grate": 1467,
      "drove": 1468,
      "pig": 1469,
      "today": 1470,
      "words": 1471,
      "snack": 1472,
      "Jenny": 1473,
      "kite": 1474,
      "reach": 1475,
      "ises": 1476,
      "fairy": 1477,
      "purple": 1478,
      "teacher": 1479,
      "elephant": 1480,
      "grateful": 1481,
      "af": 1482,
      "wise": 1483,
      "ress": 1484,
      "oun": 1485,
      "grandma": 1486,
      "blan": 1487,
      "comfor": 1488,
      "gl": 1489,
      "sister": 1490,
      "cele": 1491,
      "ote": 1492,
      "woke": 1493,
      "naught": 1494,
      "smiles": 1495,
      "œI": 1496,
      "makes": 1497,
      "taking": 1498,
      "ughter": 1499,
      "Jake": 1500,
      "candy": 1501,
      "mess": 1502,
      "heal": 1503,
      "well": 1504,
      "party": 1505,
      "dangerous": 1506,
      "celebr": 1507,
      "bas": 1508,
      "round": 1509,
      "ten": 1510,
      "ton": 1511,
      "backyard": 1512,
      "ourse": 1513,
      "kno": 1514,
      "Grandma": 1515,
      "val": 1516,
      "life": 1517,
      "Emily": 1518,
      "covered": 1519,
      "power": 1520,
      "naughty": 1521,
      "hes": 1522,
      "stuck": 1523,
      "retur": 1524,
      "ward": 1525,
      "laughing": 1526,
      "journey": 1527,
      "Alice": 1528,
      "bite": 1529,
      "dance": 1530,
      "upset": 1531,
      "quest": 1532,
      "dirty": 1533,
      "Fluffy": 1534,
      "cal": 1535,
      "gather": 1536,
      "kis": 1537,
      "basket": 1538,
      "ap": 1539,
      "boun": 1540,
      "ire": 1541,
      "wand": 1542,
      "nee": 1543,
      "pper": 1544,
      "days": 1545,
      "ete": 1546,
      "wouldn": 1547,
      "daughter": 1548,
      "Pete": 1549,
      "dist": 1550,
      "ible": 1551,
      "touc": 1552,
      "net": 1553,
      "myster": 1554,
      "nothing": 1555,
      "crying": 1556,
      "horse": 1557,
      "course": 1558,
      "lay": 1559,
      "pres": 1560,
      "vel": 1561,
      "smiling": 1562,
      "colour": 1563,
      "apple": 1564,
      "asks": 1565,
      "juice": 1566,
      "ath": 1567,
      "ons": 1568,
      "amp": 1569,
      "shoes": 1570,
      "Together": 1571,
      "creature": 1572,
      "pract": 1573,
      "Sure": 1574,
      "eventually": 1575,
      "vill": 1576,
      "sol": 1577,
      "smart": 1578,
      "touched": 1579,
      "kn": 1580,
      "sunny": 1581,
      "ntain": 1582,
      "sc": 1583,
      "unch": 1584,
      "body": 1585,
      "bush": 1586,
      "cray": 1587,
      "search": 1588,
      "My": 1589,
      "OK": 1590,
      "wings": 1591,
      "thin": 1592,
      "itting": 1593,
      "bled": 1594,
      "stead": 1595,
      "minut": 1596,
      "Please": 1597,
      "sign": 1598,
      "heart": 1599,
      "onto": 1600,
      "imag": 1601,
      "ness": 1602,
      "smoo": 1603,
      "busy": 1604,
      "blanket": 1605,
      "Pa": 1606,
      "gif": 1607,
      "scream": 1608,
      "tun": 1609,
      "irt": 1610,
      "gest": 1611,
      "bring": 1612,
      "spotted": 1613,
      "ced": 1614,
      "hu": 1615,
      "ser": 1616,
      "belong": 1617,
      "peace": 1618,
      "path": 1619,
      "huge": 1620,
      "fit": 1621,
      "games": 1622,
      "spr": 1623,
      "wash": 1624,
      "pol": 1625,
      "pushed": 1626,
      "singing": 1627,
      "trou": 1628,
      "tasty": 1629,
      "wants": 1630,
      "spent": 1631,
      "rubb": 1632,
      "pull": 1633,
      "explained": 1634,
      "dolls": 1635,
      "smooth": 1636,
      "cir": 1637,
      "gigg": 1638,
      "sco": 1639,
      "sack": 1640,
      "act": 1641,
      "past": 1642,
      "shining": 1643,
      "watching": 1644,
      "driver": 1645,
      "welcome": 1646,
      "swimming": 1647,
      "Ted": 1648,
      "kitten": 1649,
      "tu": 1650,
      "wish": 1651,
      "inte": 1652,
      "meet": 1653,
      "rank": 1654,
      "stars": 1655,
      "forever": 1656,
      "sunshine": 1657,
      "craw": 1658,
      "fig": 1659,
      "suc": 1660,
      "sang": 1661,
      "sitting": 1662,
      "rolled": 1663,
      "stories": 1664,
      "broke": 1665,
      "resting": 1666,
      "Okay": 1667,
      "ont": 1668,
      "rocks": 1669,
      "chair": 1670,
      "bowl": 1671,
      "front": 1672,
      "princess": 1673,
      "clouds": 1674,
      "neighbor": 1675,
      "How": 1676,
      "gra": 1677,
      "ipped": 1678,
      "mine": 1679,
      "plane": 1680,
      "cozy": 1681,
      "shapes": 1682,
      "danced": 1683,
      "street": 1684,
      "present": 1685,
      "oom": 1686,
      "win": 1687,
      "hop": 1688,
      "owner": 1689,
      "grand": 1690,
      "which": 1691,
      "tasted": 1692,
      "Little": 1693,
      "late": 1694,
      "lunch": 1695,
      "ship": 1696,
      "ugg": 1697,
      "brown": 1698,
      "push": 1699,
      "ize": 1700,
      "places": 1701,
      "rainbow": 1702,
      "Peter": 1703,
      "mod": 1704,
      "rew": 1705,
      "Their": 1706,
      "lect": 1707,
      "whole": 1708,
      "bru": 1709,
      "wondered": 1710,
      "arms": 1711,
      "eas": 1712,
      "egg": 1713,
      "carry": 1714,
      "ches": 1715,
      "mouth": 1716,
      "Where": 1717,
      "nic": 1718,
      "ps": 1719,
      "idge": 1720,
      "noises": 1721,
      "shook": 1722,
      "dropped": 1723,
      "corner": 1724,
      "drink": 1725,
      "village": 1726,
      "Kitty": 1727,
      "sug": 1728,
      "log": 1729,
      "spicy": 1730,
      "Sammy": 1731,
      "izz": 1732,
      "searched": 1733,
      "splash": 1734,
      "eag": 1735,
      "fence": 1736,
      "gen": 1737,
      "thday": 1738,
      "carrot": 1739,
      "foot": 1740,
      "spo": 1741,
      "chest": 1742,
      "comfortable": 1743,
      "bought": 1744,
      "den": 1745,
      "mes": 1746,
      "ider": 1747,
      "leg": 1748,
      "threw": 1749,
      "spin": 1750,
      "mail": 1751,
      "confused": 1752,
      "lovely": 1753,
      "large": 1754,
      "interesting": 1755,
      "Mar": 1756,
      "bur": 1757,
      "dle": 1758,
      "lemon": 1759,
      "shy": 1760,
      "seek": 1761,
      "mummy": 1762,
      "blem": 1763,
      "Fred": 1764,
      "elly": 1765,
      "wild": 1766,
      "sage": 1767,
      "att": 1768,
      "live": 1769,
      "spoon": 1770,
      "joke": 1771,
      "bubb": 1772,
      "farm": 1773,
      "count": 1774,
      "problem": 1775,
      "circle": 1776,
      "Later": 1777,
      "ail": 1778,
      "ben": 1779,
      "gy": 1780,
      "gged": 1781,
      "oce": 1782,
      "pi": 1783,
      "ens": 1784,
      "Hey": 1785,
      "roar": 1786,
      "roll": 1787,
      "hoped": 1788,
      "barr": 1789,
      "cute": 1790,
      "embarr": 1791,
      "ocean": 1792,
      "Sus": 1793,
      "ier": 1794,
      "ult": 1795,
      "hello": 1796,
      "uni": 1797,
      "forget": 1798,
      "group": 1799,
      "ancy": 1800,
      "bugs": 1801,
      "bottle": 1802,
      "answer": 1803,
      "blew": 1804,
      "kick": 1805,
      "num": 1806,
      "anut": 1807,
      "stud": 1808,
      "adow": 1809,
      "button": 1810,
      "meadow": 1811,
      "twins": 1812,
      "patient": 1813,
      "pointed": 1814,
      "Good": 1815,
      "branch": 1816,
      "os": 1817,
      "pudd": 1818,
      "pile": 1819,
      "ull": 1820,
      "letter": 1821,
      "teddy": 1822,
      "birthday": 1823,
      "bedroom": 1824,
      "talking": 1825,
      "Of": 1826,
      "ey": 1827,
      "jar": 1828,
      "lex": 1829,
      "loom": 1830,
      "carried": 1831,
      "fold": 1832,
      "berry": 1833,
      "Bobby": 1834,
      "coun": 1835,
      "hidden": 1836,
      "wearing": 1837,
      "embarrass": 1838,
      "Susie": 1839,
      "ast": 1840,
      "hours": 1841,
      "ident": 1842,
      "forward": 1843,
      "ugly": 1844,
      "excite": 1845,
      "Everywhere": 1846,
      "pool": 1847,
      "clever": 1848,
      "monkey": 1849,
      "phone": 1850,
      "ungle": 1851,
      "holding": 1852,
      "mysterious": 1853,
      "figure": 1854,
      "Even": 1855,
      "jungle": 1856,
      "instead": 1857,
      "test": 1858,
      "Johnny": 1859,
      "write": 1860,
      "Tweety": 1861,
      "ressed": 1862,
      "healthy": 1863,
      "excitement": 1864,
      "lucky": 1865,
      "oc": 1866,
      "sli": 1867,
      "zoom": 1868,
      "organ": 1869,
      "rill": 1870,
      "ased": 1871,
      "feet": 1872,
      "deter": 1873,
      "helpful": 1874,
      "stor": 1875,
      "takes": 1876,
      "picnic": 1877,
      "drive": 1878,
      "person": 1879,
      "embarrassed": 1880,
      "clear": 1881,
      "uce": 1882,
      "remind": 1883,
      "aser": 1884,
      "asleep": 1885,
      "playground": 1886,
      "shr": 1887,
      "puzz": 1888,
      "thinks": 1889,
      "returned": 1890,
      "Sandy": 1891,
      "pre": 1892,
      "ert": 1893,
      "raid": 1894,
      "rope": 1895,
      "last": 1896,
      "spider": 1897,
      "bus": 1898,
      "teach": 1899,
      "Letâ": 1900,
      "standing": 1901,
      "matter": 1902,
      "fruit": 1903,
      "eager": 1904,
      "di": 1905,
      "fancy": 1906,
      "lit": 1907,
      "inv": 1908,
      "step": 1909,
      "ses": 1910,
      "Andy": 1911,
      "sounds": 1912,
      "miss": 1913,
      "Mrs": 1914,
      "afraid": 1915,
      "colourful": 1916,
      "blow": 1917,
      "est": 1918,
      "fing": 1919,
      "esca": 1920,
      "?\".": 1921,
      "acc": 1922,
      "swings": 1923,
      "turns": 1924,
      "gathered": 1925,
      "Re": 1926,
      "ase": 1927,
      "cow": 1928,
      "mad": 1929,
      "mud": 1930,
      "tie": 1931,
      "wave": 1932,
      "sailed": 1933,
      "nest": 1934,
      "ighed": 1935,
      "grew": 1936,
      "talked": 1937,
      "angel": 1938,
      "sandw": 1939,
      "building": 1940,
      "later": 1941,
      "wra": 1942,
      "iddle": 1943,
      "stir": 1944,
      "hope": 1945,
      "motor": 1946,
      "prote": 1947,
      "law": 1948,
      "throw": 1949,
      "smelled": 1950,
      "whenever": 1951,
      "brush": 1952,
      "End": 1953,
      "bone": 1954,
      "swe": 1955,
      "ual": 1956,
      "become": 1957,
      "exam": 1958,
      "coura": 1959,
      "breath": 1960,
      "flut": 1961,
      "ignor": 1962,
      "gently": 1963,
      "furry": 1964,
      "sparkly": 1965,
      "minutes": 1966,
      "mined": 1967,
      "sour": 1968,
      "ub": 1969,
      "hel": 1970,
      "stum": 1971,
      "ilk": 1972,
      "bell": 1973,
      "robot": 1974,
      "peanut": 1975,
      "hopping": 1976,
      "tightly": 1977,
      "match": 1978,
      "storm": 1979,
      "accident": 1980,
      "Eventually": 1981,
      "If": 1982,
      "hang": 1983,
      "milk": 1984,
      "sick": 1985,
      "tig": 1986,
      "ars": 1987,
      "shirt": 1988,
      "usual": 1989,
      "anyone": 1990,
      "cheer": 1991,
      "Today": 1992,
      "Grand": 1993,
      "trip": 1994,
      "calm": 1995,
      "peaceful": 1996,
      "determined": 1997,
      "mach": 1998,
      "nut": 1999,
      "ring": 2000,
      "vie": 2001,
      "smelly": 2002,
      "goat": 2003,
      "cient": 2004,
      "finish": 2005,
      "waiting": 2006,
      "yelled": 2007,
      "grab": 2008,
      "band": 2009,
      "cross": 2010,
      "hin": 2011,
      "part": 2012,
      "tro": 2013,
      "wide": 2014,
      "ones": 2015,
      "neck": 2016,
      "shes": 2017,
      "adm": 2018,
      "alous": 2019,
      "week": 2020,
      "chan": 2021,
      "endable": 2022,
      "urt": 2023,
      "nose": 2024,
      "getable": 2025,
      "comes": 2026,
      "collect": 2027,
      "jealous": 2028,
      "answered": 2029,
      "trouble": 2030,
      "Who": 2031,
      "ating": 2032,
      "vegetable": 2033,
      "asking": 2034,
      "spect": 2035,
      "keeper": 2036,
      "disappeared": 2037,
      "couch": 2038,
      "tower": 2039,
      "giant": 2040,
      "puddle": 2041,
      "Ch": 2042,
      "Ju": 2043,
      "TV": 2044,
      "cted": 2045,
      "fli": 2046,
      "seat": 2047,
      "ending": 2048,
      "dep": 2049,
      "moon": 2050,
      "coin": 2051,
      "cage": 2052,
      "jumping": 2053,
      "treats": 2054,
      "gas": 2055,
      "middle": 2056,
      "vi": 2057,
      "plant": 2058,
      "feels": 2059,
      "selfish": 2060,
      "shore": 2061,
      "mountain": 2062,
      "success": 2063,
      "jam": 2064,
      "pan": 2065,
      "vous": 2066,
      "ana": 2067,
      "wagon": 2068,
      "erpill": 2069,
      "stair": 2070,
      "orm": 2071,
      "ird": 2072,
      "shell": 2073,
      "add": 2074,
      "chick": 2075,
      "shout": 2076,
      "bull": 2077,
      "caterpill": 2078,
      "runs": 2079,
      "hiding": 2080,
      "promise": 2081,
      "dancing": 2082,
      "whistle": 2083,
      "gift": 2084,
      "screamed": 2085,
      "Dan": 2086,
      "Sop": 2087,
      "ese": 2088,
      "ife": 2089,
      "pizz": 2090,
      "wom": 2091,
      "these": 2092,
      "respect": 2093,
      "knowing": 2094,
      "paw": 2095,
      "tak": 2096,
      "ladder": 2097,
      "true": 2098,
      "realised": 2099,
      "rocket": 2100,
      "creative": 2101,
      "thankful": 2102,
      "caterpillar": 2103,
      "Soph": 2104,
      "woman": 2105,
      "Grace": 2106,
      "fre": 2107,
      "hit": 2108,
      "sil": 2109,
      "soup": 2110,
      "tag": 2111,
      "isa": 2112,
      "owed": 2113,
      "card": 2114,
      "dest": 2115,
      "hugs": 2116,
      "police": 2117,
      "izzy": 2118,
      "chased": 2119,
      "While": 2120,
      "sleepy": 2121,
      "known": 2122,
      "crayons": 2123,
      "generous": 2124,
      "Alex": 2125,
      "Le": 2126,
      "Polly": 2127,
      "bers": 2128,
      "glow": 2129,
      "oin": 2130,
      "scre": 2131,
      "tid": 2132,
      "inc": 2133,
      "recor": 2134,
      "save": 2135,
      "unusual": 2136,
      "weak": 2137,
      "form": 2138,
      "abin": 2139,
      "measure": 2140,
      "cact": 2141,
      "skipped": 2142,
      "loves": 2143,
      "apples": 2144,
      "appoin": 2145,
      "disappoin": 2146,
      "kiss": 2147,
      "dependable": 2148,
      "taken": 2149,
      "Lisa": 2150,
      "œIt": 2151,
      "ancient": 2152,
      "lead": 2153,
      "stret": 2154,
      "feather": 2155,
      "manag": 2156,
      "lax": 2157,
      "umpy": 2158,
      "trust": 2159,
      "nervous": 2160,
      "market": 2161,
      "songs": 2162,
      "packed": 2163,
      "desk": 2164,
      "powerful": 2165,
      "Papa": 2166,
      "Grandpa": 2167,
      "James": 2168,
      "Me": 2169,
      "bal": 2170,
      "brill": 2171,
      "cand": 2172,
      "iant": 2173,
      "knee": 2174,
      "ity": 2175,
      "rich": 2176,
      "terri": 2177,
      "umsy": 2178,
      "word": 2179,
      "case": 2180,
      "taste": 2181,
      "Ann": 2182,
      "berries": 2183,
      "cheese": 2184,
      "jewel": 2185,
      "strated": 2186,
      "neighb": 2187,
      "tiger": 2188,
      "vegetables": 2189,
      "pizza": 2190,
      "brilliant": 2191,
      "Mark": 2192,
      "Whe": 2193,
      "tick": 2194,
      "œThat": 2195,
      "relax": 2196,
      "arrow": 2197,
      "often": 2198,
      "father": 2199,
      "clay": 2200,
      "class": 2201,
      "Well": 2202,
      "plants": 2203,
      "polite": 2204,
      "See": 2205,
      "gara": 2206,
      "hi": 2207,
      "pty": 2208,
      "œLetâ": 2209,
      "reli": 2210,
      "sock": 2211,
      "gem": 2212,
      "cop": 2213,
      "obed": 2214,
      "chew": 2215,
      "understood": 2216,
      "stronger": 2217,
      "twirl": 2218,
      "pretended": 2219,
      "empty": 2220,
      "snacks": 2221,
      "Teddy": 2222,
      "bench": 2223,
      "study": 2224,
      "disappointed": 2225,
      "garage": 2226,
      "cher": 2227,
      "hive": 2228,
      "honey": 2229,
      "ligh": 2230,
      "lves": 2231,
      "edge": 2232,
      "tomor": 2233,
      "once": 2234,
      "island": 2235,
      "saved": 2236,
      "orn": 2237,
      "dead": 2238,
      "spread": 2239,
      "brightly": 2240,
      "fixed": 2241,
      "frustrated": 2242,
      "supp": 2243,
      "Sometimes": 2244,
      "escape": 2245,
      "cactus": 2246,
      "obedient": 2247,
      "lighted": 2248,
      "tomorrow": 2249,
      "ashed": 2250,
      "oven": 2251,
      "sight": 2252,
      "œYes": 2253,
      "stuff": 2254,
      "shelf": 2255,
      "road": 2256,
      "delight": 2257,
      "delighted": 2258,
      "moving": 2259,
      "icine": 2260,
      "team": 2261,
      "calling": 2262,
      "shake": 2263,
      "medicine": 2264,
      "ducks": 2265,
      "stream": 2266,
      "ittens": 2267,
      "dirt": 2268,
      "distance": 2269,
      "solve": 2270,
      "giggled": 2271,
      "easy": 2272,
      "messy": 2273,
      "protect": 2274,
      "tidy": 2275,
      "managed": 2276,
      "cabin": 2277,
      "ga": 2278,
      "lid": 2279,
      "pin": 2280,
      "shad": 2281,
      "tory": 2282,
      "orge": 2283,
      "irp": 2284,
      "vet": 2285,
      "almost": 2286,
      "gold": 2287,
      "ured": 2288,
      "meant": 2289,
      "decor": 2290,
      "taught": 2291,
      "impressed": 2292,
      "painting": 2293,
      "chocol": 2294,
      "Toby": 2295,
      "slid": 2296,
      "frown": 2297,
      "corn": 2298,
      "penny": 2299,
      "giving": 2300,
      "wheel": 2301,
      "passed": 2302,
      "puzzle": 2303,
      "stairs": 2304,
      "incred": 2305,
      "reliable": 2306,
      "cy": 2307,
      "fil": 2308,
      "gust": 2309,
      "pir": 2310,
      "rid": 2311,
      "ul": 2312,
      "ats": 2313,
      "added": 2314,
      "fear": 2315,
      "extra": 2316,
      "ately": 2317,
      "using": 2318,
      "compl": 2319,
      "content": 2320,
      "leaf": 2321,
      "bald": 2322,
      "guard": 2323,
      "crack": 2324,
      "happening": 2325,
      "knocked": 2326,
      "Sophie": 2327,
      "Whenever": 2328,
      "Bet": 2329,
      "Sm": 2330,
      "pop": 2331,
      "snee": 2332,
      "sighed": 2333,
      "zard": 2334,
      "ina": 2335,
      "load": 2336,
      "Help": 2337,
      "already": 2338,
      "lift": 2339,
      "lizard": 2340,
      "itter": 2341,
      "rag": 2342,
      "dolp": 2343,
      "urous": 2344,
      "acce": 2345,
      "yourself": 2346,
      "picking": 2347,
      "adventurous": 2348,
      "discovered": 2349,
      "crown": 2350,
      "fluffy": 2351,
      "cookie": 2352,
      "favour": 2353,
      "stones": 2354,
      "celebrate": 2355,
      "questions": 2356,
      "accidentally": 2357,
      "flies": 2358,
      "Will": 2359,
      "fla": 2360,
      "line": 2361,
      "yo": 2362,
      "stra": 2363,
      "seed": 2364,
      "lying": 2365,
      "raven": 2366,
      "excitedly": 2367,
      "maze": 2368,
      "turkey": 2369,
      "Joey": 2370,
      "sharp": 2371,
      "pleased": 2372,
      "splashed": 2373,
      "whisper": 2374,
      "rubbed": 2375,
      "terrible": 2376,
      "chocolate": 2377,
      "incredible": 2378,
      "favourite": 2379,
      "Would": 2380,
      "abo": 2381,
      "dizzy": 2382,
      "osa": 2383,
      "pri": 2384,
      "œWhat": 2385,
      "ination": 2386,
      "toug": 2387,
      "era": 2388,
      "lla": 2389,
      "imed": 2390,
      "uring": 2391,
      "gray": 2392,
      "spit": 2393,
      "poor": 2394,
      "clumsy": 2395,
      "tape": 2396,
      "sorts": 2397,
      "barber": 2398,
      "landed": 2399,
      "crawled": 2400,
      "octop": 2401,
      "above": 2402,
      "osaur": 2403,
      "Bu": 2404,
      "Ge": 2405,
      "char": 2406,
      "grace": 2407,
      "zed": 2408,
      "wake": 2409,
      "ature": 2410,
      "soar": 2411,
      "vest": 2412,
      "plate": 2413,
      "!\".": 2414,
      "grumpy": 2415,
      "jog": 2416,
      "wore": 2417,
      "cloth": 2418,
      "skip": 2419,
      "comet": 2420,
      "faces": 2421,
      "walks": 2422,
      "Lola": 2423,
      "dinosaur": 2424,
      "sticks": 2425,
      "fridge": 2426,
      "march": 2427,
      "sandwich": 2428,
      "stumbled": 2429,
      "viol": 2430,
      "octopus": 2431,
      "George": 2432,
      "cate": 2433,
      "mic": 2434,
      "mark": 2435,
      "pour": 2436,
      "refused": 2437,
      "ilt": 2438,
      "shone": 2439,
      "lazy": 2440,
      "ears": 2441,
      "pair": 2442,
      "check": 2443,
      "donâ": 2444,
      "discover": 2445,
      "square": 2446,
      "sounded": 2447,
      "sharing": 2448,
      "explored": 2449,
      "fighting": 2450,
      "pillow": 2451,
      "number": 2452,
      "record": 2453,
      "Smith": 2454,
      "dolphin": 2455,
      "violin": 2456,
      "micro": 2457,
      "Are": 2458,
      "eld": 2459,
      "fted": 2460,
      "kitty": 2461,
      "iness": 2462,
      "waves": 2463,
      "eng": 2464,
      "feed": 2465,
      "espe": 2466,
      "cially": 2467,
      "comple": 2468,
      "kinds": 2469,
      "gives": 2470,
      "delicate": 2471,
      "boring": 2472,
      "barked": 2473,
      "jelly": 2474,
      "prince": 2475,
      "mighty": 2476,
      "drum": 2477,
      "persist": 2478,
      "searching": 2479,
      "circles": 2480,
      "eye": 2481,
      "especially": 2482,
      "fic": 2483,
      "hum": 2484,
      "rough": 2485,
      "zzy": 2486,
      "stru": 2487,
      "those": 2488,
      "hero": 2489,
      "sell": 2490,
      "fork": 2491,
      "roof": 2492,
      "coat": 2493,
      "laimed": 2494,
      "working": 2495,
      "exclaimed": 2496,
      "space": 2497,
      "rude": 2498,
      "tea": 2499,
      "skin": 2500,
      "showing": 2501,
      "squee": 2502,
      "painted": 2503,
      "chose": 2504,
      "walls": 2505,
      "Maria": 2506,
      "finger": 2507,
      "tough": 2508,
      "Hen": 2509,
      "Ros": 2510,
      "vide": 2511,
      "witch": 2512,
      "zoo": 2513,
      "isted": 2514,
      "leash": 2515,
      "bees": 2516,
      "ended": 2517,
      "raced": 2518,
      "onest": 2519,
      "rushed": 2520,
      "tears": 2521,
      "harm": 2522,
      "dogs": 2523,
      "cush": 2524,
      "saying": 2525,
      "locked": 2526,
      "queen": 2527,
      "wrote": 2528,
      "string": 2529,
      "trick": 2530,
      "pointing": 2531,
      "valu": 2532,
      "practice": 2533,
      "belonged": 2534,
      "elder": 2535,
      "Henry": 2536,
      "Rosie": 2537,
      "Frank": 2538,
      "Mandy": 2539,
      "St": 2540,
      "Stop": 2541,
      "aw": 2542,
      "bs": 2543,
      "drank": 2544,
      "gun": 2545,
      "mama": 2546,
      "wis": 2547,
      "wip": 2548,
      "yal": 2549,
      "rend": 2550,
      "eraser": 2551,
      "hamed": 2552,
      "thick": 2553,
      "adi": 2554,
      "otter": 2555,
      "ashamed": 2556,
      "fool": 2557,
      "expens": 2558,
      "leaving": 2559,
      "diffic": 2560,
      "snake": 2561,
      "spray": 2562,
      "suggest": 2563,
      "courage": 2564,
      "nuts": 2565,
      "neighbour": 2566,
      "persistent": 2567,
      "valuable": 2568,
      "expensive": 2569,
      "difficult": 2570,
      "Bell": 2571,
      "Mittens": 2572,
      "cer": 2573,
      "cing": 2574,
      "camp": 2575,
      "dish": 2576,
      "dull": 2577,
      "honest": 2578,
      "sca": 2579,
      "wha": 2580,
      "tom": 2581,
      "itself": 2582,
      "loyal": 2583,
      "ilty": 2584,
      "nel": 2585,
      "forgive": 2586,
      "pear": 2587,
      "lown": 2588,
      "bushes": 2589,
      "ruined": 2590,
      "useful": 2591,
      "surrend": 2592,
      "loudly": 2593,
      "trucks": 2594,
      "flash": 2595,
      "guilty": 2596,
      "print": 2597,
      "bottom": 2598,
      "suit": 2599,
      "shopkeeper": 2600,
      "glue": 2601,
      "wander": 2602,
      "crayon": 2603,
      "imagined": 2604,
      "ignorant": 2605,
      "successful": 2606,
      "hipp": 2607,
      "pirate": 2608,
      "foolish": 2609,
      "Bella": 2610,
      "Br": 2611,
      "Elly": 2612,
      "ban": 2613,
      "bat": 2614,
      "eth": 2615,
      "pit": 2616,
      "pay": 2617,
      "pup": 2618,
      "task": 2619,
      "belt": 2620,
      "aled": 2621,
      "gets": 2622,
      "player": 2623,
      "hood": 2624,
      "cane": 2625,
      "pray": 2626,
      "seem": 2627,
      "grown": 2628,
      "Everything": 2629,
      "learning": 2630,
      "safely": 2631,
      "enjoying": 2632,
      "gular": 2633,
      "marble": 2634,
      "sailor": 2635,
      "mixed": 2636,
      "tunnel": 2637,
      "serious": 2638,
      "sugar": 2639,
      "flute": 2640,
      "fresh": 2641,
      "elderly": 2642,
      "hippo": 2643,
      "Bo": 2644,
      "Char": 2645,
      "Ducky": 2646,
      "Ton": 2647,
      "bloom": 2648,
      "fou": 2649,
      "may": 2650,
      "ti": 2651,
      "tank": 2652,
      "towel": 2653,
      "reve": 2654,
      "regular": 2655,
      "deer": 2656,
      "meal": 2657,
      "boys": 2658,
      "nosy": 2659,
      "sport": 2660,
      "warned": 2661,
      "compass": 2662,
      "smaller": 2663,
      "kindness": 2664,
      "chain": 2665,
      "sym": 2666,
      "bored": 2667,
      "mistake": 2668,
      "crab": 2669,
      "strugg": 2670,
      "purse": 2671,
      "juicy": 2672,
      "kayak": 2673,
      "bathroom": 2674,
      "branches": 2675,
      "knife": 2676,
      "thinking": 2677,
      "swee": 2678,
      "Danny": 2679,
      "Leo": 2680,
      "whale": 2681,
      "fountain": 2682,
      "ian": 2683,
      "trun": 2684,
      "ubb": 2685,
      "yer": 2686,
      "repe": 2687,
      "ham": 2688,
      "stubb": 2689,
      "soap": 2690,
      "weird": 2691,
      "bol": 2692,
      "smo": 2693,
      "goes": 2694,
      "speed": 2695,
      "map": 2696,
      "obje": 2697,
      "beauty": 2698,
      "shape": 2699,
      "turtle": 2700,
      "hurry": 2701,
      "stranger": 2702,
      "borrow": 2703,
      "parade": 2704,
      "missed": 2705,
      "drawing": 2706,
      "package": 2707,
      "bounce": 2708,
      "bubbles": 2709,
      "unique": 2710,
      "charming": 2711,
      "symbol": 2712,
      "Bl": 2713,
      "Give": 2714,
      "bitter": 2715,
      "cri": 2716,
      "curt": 2717,
      "gie": 2718,
      "ipping": 2719,
      "kin": 2720,
      "vase": 2721,
      "inal": 2722,
      "orig": 2723,
      "pee": 2724,
      "host": 2725,
      "agree": 2726,
      "lace": 2727,
      "quite": 2728,
      "Josh": 2729,
      "built": 2730,
      "clock": 2731,
      "pole": 2732,
      "offered": 2733,
      "frame": 2734,
      "metal": 2735,
      "legs": 2736,
      "reminded": 2737,
      "invited": 2738,
      "lawyer": 2739,
      "cheerful": 2740,
      "machine": 2741,
      "admired": 2742,
      "gasped": 2743,
      "candle": 2744,
      "trunk": 2745,
      "stubborn": 2746,
      "Blue": 2747,
      "curtain": 2748,
      "original": 2749,
      "Rac": 2750,
      "ghost": 2751,
      "sudden": 2752,
      "vice": 2753,
      "theart": 2754,
      "lean": 2755,
      "ora": 2756,
      "order": 2757,
      "Here": 2758,
      "admi": 2759,
      "rice": 2760,
      "chub": 2761,
      "boss": 2762,
      "biggest": 2763,
      "meas": 2764,
      "cano": 2765,
      "wolf": 2766,
      "aced": 2767,
      "nail": 2768,
      "polog": 2769,
      "drew": 2770,
      "compet": 2771,
      "office": 2772,
      "boxes": 2773,
      "painter": 2774,
      "choose": 2775,
      "telling": 2776,
      "travel": 2777,
      "fruits": 2778,
      "tutor": 2779,
      "suggested": 2780,
      "sweetheart": 2781,
      "smoke": 2782,
      "Rachel": 2783,
      "admire": 2784,
      "chubby": 2785,
      "competit": 2786,
      "Baby": 2787,
      "Dave": 2788,
      "apolog": 2789,
      "cil": 2790,
      "mir": 2791,
      "oy": 2792,
      "rat": 2793,
      "rise": 2794,
      "tummy": 2795,
      "heli": 2796,
      "ener": 2797,
      "ley": 2798,
      "beam": 2799,
      "secon": 2800,
      "selves": 2801,
      "undry": 2802,
      "uncomfortable": 2803,
      "lifted": 2804,
      "change": 2805,
      "endent": 2806,
      "raft": 2807,
      "shut": 2808,
      "shroom": 2809,
      "rode": 2810,
      "ext": 2811,
      "hospit": 2812,
      "indep": 2813,
      "cannot": 2814,
      "laundry": 2815,
      "noisy": 2816,
      "against": 2817,
      "puts": 2818,
      "bridge": 2819,
      "bbie": 2820,
      "couldnâ": 2821,
      "proudly": 2822,
      "angle": 2823,
      "comput": 2824,
      "olcano": 2825,
      "famous": 2826,
      "trem": 2827,
      "twig": 2828,
      "hears": 2829,
      "doesn": 2830,
      "patch": 2831,
      "pencil": 2832,
      "sub": 2833,
      "organized": 2834,
      "Remy": 2835,
      "necklace": 2836,
      "copter": 2837,
      "engine": 2838,
      "Brown": 2839,
      "compassion": 2840,
      "helicopter": 2841,
      "hospital": 2842,
      "independent": 2843,
      "Car": 2844,
      "Next": 2845,
      "Sor": 2846,
      "aking": 2847,
      "cone": 2848,
      "cran": 2849,
      "jet": 2850,
      "knight": 2851,
      "lamp": 2852,
      "maybe": 2853,
      "pal": 2854,
      "port": 2855,
      "ror": 2856,
      "€.": 2857,
      "wagged": 2858,
      "itâ": 2859,
      "ison": 2860,
      "sauce": 2861,
      "iron": 2862,
      "advice": 2863,
      "alert": 2864,
      "ents": 2865,
      "peek": 2866,
      "tool": 2867,
      "spir": 2868,
      "ief": 2869,
      "tem": 2870,
      "teeth": 2871,
      "handed": 2872,
      "needs": 2873,
      "cube": 2874,
      "lights": 2875,
      "shark": 2876,
      "snif": 2877,
      "barn": 2878,
      "dreaming": 2879,
      "closely": 2880,
      "sparkled": 2881,
      "given": 2882,
      "whist": 2883,
      "diam": 2884,
      "changed": 2885,
      "wiped": 2886,
      "peeked": 2887,
      "oyster": 2888,
      "Sorry": 2889,
      "By": 2890,
      "Mill": 2891,
      "ahead": 2892,
      "jack": 2893,
      "nit": 2894,
      "œYou": 2895,
      "ince": 2896,
      "ines": 2897,
      "ern": 2898,
      "erce": 2899,
      "hadn": 2900,
      "licked": 2901,
      "rose": 2902,
      "mole": 2903,
      "coco": 2904,
      "spun": 2905,
      "sadly": 2906,
      "finding": 2907,
      "poppy": 2908,
      "sors": 2909,
      "fierce": 2910,
      "impat": 2911,
      "leak": 2912,
      "butterflies": 2913,
      "cooking": 2914,
      "hairy": 2915,
      "treasures": 2916,
      "question": 2917,
      "kissed": 2918,
      "tuna": 2919,
      "modern": 2920,
      "carrots": 2921,
      "spoke": 2922,
      "spinning": 2923,
      "slipped": 2924,
      "chicken": 2925,
      "silver": 2926,
      "balance": 2927,
      "twirled": 2928,
      "flashlight": 2929,
      "spirit": 2930,
      "Millie": 2931,
      "jacket": 2932,
      "Cl": 2933,
      "May": 2934,
      "Ste": 2935,
      "aur": 2936,
      "bark": 2937,
      "clown": 2938,
      "fake": 2939,
      "four": 2940,
      "mill": 2941,
      "swan": 2942,
      "tied": 2943,
      "eri": 2944,
      "ordin": 2945,
      "playful": 2946,
      "fuel": 2947,
      "pepper": 2948,
      "movie": 2949,
      "memor": 2950,
      "joined": 2951,
      "early": 2952,
      "ucked": 2953,
      "louder": 2954,
      "fishing": 2955,
      "brighter": 2956,
      "shoot": 2957,
      "lightning": 2958,
      "restaur": 2959,
      "chase": 2960,
      "tells": 2961,
      "phy": 2962,
      "driving": 2963,
      "dreams": 2964,
      "furnit": 2965,
      "triangle": 2966,
      "celebrated": 2967,
      "practiced": 2968,
      "trophy": 2969,
      "screen": 2970,
      "œItâ": 2971,
      "graceful": 2972,
      "harmless": 2973,
      "cocoa": 2974,
      "impatient": 2975,
      "ordinary": 2976,
      "restaurant": 2977,
      "furniture": 2978,
      "Lilly": 2979,
      "fright": 2980,
      "kne": 2981,
      "knot": 2982,
      "norm": 2983,
      "vine": 2984,
      "volcano": 2985,
      "env": 2986,
      "issors": 2987,
      "cell": 2988,
      "sold": 2989,
      "unknown": 2990,
      "happiness": 2991,
      "roy": 2992,
      "tered": 2993,
      "carpet": 2994,
      "themselves": 2995,
      "noon": 2996,
      "spill": 2997,
      "mushroom": 2998,
      "harder": 2999,
      "harbor": 3000,
      "learnt": 3001,
      "evening": 3002,
      "shaking": 3003,
      "cupboard": 3004,
      "scissors": 3005,
      "serve": 3006,
      "scoot": 3007,
      "bubble": 3008,
      "numbers": 3009,
      "wrapped": 3010,
      "destroy": 3011,
      "feathers": 3012,
      "whispered": 3013,
      "struct": 3014,
      "wishes": 3015,
      "Tony": 3016,
      "mirror": 3017,
      "crane": 3018,
      "diamond": 3019,
      "awe": 3020,
      "frag": 3021,
      "son": 3022,
      "thread": 3023,
      "placed": 3024,
      "allowed": 3025,
      "ots": 3026,
      "weather": 3027,
      "chur": 3028,
      "fort": 3029,
      "rare": 3030,
      "ugged": 3031,
      "note": 3032,
      "spa": 3033,
      "decide": 3034,
      "rub": 3035,
      "careless": 3036,
      "closet": 3037,
      "poss": 3038,
      "paid": 3039,
      "pale": 3040,
      "colours": 3041,
      "perform": 3042,
      "cleaned": 3043,
      "Thanks": 3044,
      "tract": 3045,
      "miser": 3046,
      "visited": 3047,
      "beef": 3048,
      "horn": 3049,
      "breakfast": 3050,
      "growing": 3051,
      "knob": 3052,
      "minute": 3053,
      "troubled": 3054,
      "football": 3055,
      "attic": 3056,
      "gym": 3057,
      "buttons": 3058,
      "shrimp": 3059,
      "view": 3060,
      "Betty": 3061,
      "complete": 3062,
      "cushion": 3063,
      "subway": 3064,
      "\",": 3065,
      "Kate": 3066,
      "Su": 3067,
      "ax": 3068,
      "city": 3069,
      "fed": 3070,
      "fat": 3071,
      "hic": 3072,
      "nature": 3073,
      "tti": 3074,
      "€“": 3075,
      "hetti": 3076,
      "inked": 3077,
      "rem": 3078,
      "stri": 3079,
      "attract": 3080,
      "vehic": 3081,
      "uper": 3082,
      "als": 3083,
      "dove": 3084,
      "aghetti": 3085,
      "newspa": 3086,
      "fac": 3087,
      "spaghetti": 3088,
      "bble": 3089,
      "thoughtful": 3090,
      "cats": 3091,
      "steal": 3092,
      "chamber": 3093,
      "chasing": 3094,
      "further": 3095,
      "writing": 3096,
      "patter": 3097,
      "pige": 3098,
      "return": 3099,
      "Paul": 3100,
      "succe": 3101,
      "pushing": 3102,
      "modest": 3103,
      "eggs": 3104,
      "mailbox": 3105,
      "jokes": 3106,
      "classroom": 3107,
      "batter": 3108,
      "computer": 3109,
      "normal": 3110,
      "church": 3111,
      "possible": 3112,
      "miserable": 3113,
      "axe": 3114,
      "Al": 3115,
      "Mad": 3116,
      "bent": 3117,
      "cree": 3118,
      "dug": 3119,
      "gn": 3120,
      "gate": 3121,
      "ler": 3122,
      "men": 3123,
      "ular": 3124,
      "zor": 3125,
      "hay": 3126,
      "ense": 3127,
      "enve": 3128,
      "station": 3129,
      "lick": 3130,
      "libr": 3131,
      "razor": 3132,
      "stared": 3133,
      "spend": 3134,
      "jolly": 3135,
      "achie": 3136,
      "harsh": 3137,
      "poison": 3138,
      "skill": 3139,
      "blinked": 3140,
      "needle": 3141,
      "cuss": 3142,
      "impro": 3143,
      "nods": 3144,
      "hurts": 3145,
      "discuss": 3146,
      "shouldn": 3147,
      "squash": 3148,
      "listening": 3149,
      "firework": 3150,
      "trade": 3151,
      "dreamed": 3152,
      "clap": 3153,
      "clapping": 3154,
      "swinging": 3155,
      "ngth": 3156,
      "strength": 3157,
      "split": 3158,
      "glass": 3159,
      "velvet": 3160,
      "spring": 3161,
      "polish": 3162,
      "Freddy": 3163,
      "frowned": 3164,
      "straw": 3165,
      "Charlie": 3166,
      "hammer": 3167,
      "bossy": 3168,
      "frightened": 3169,
      "fragile": 3170,
      "attractive": 3171,
      "factory": 3172,
      "Maddy": 3173,
      "envelo": 3174,
      "Bear": 3175,
      "Ella": 3176,
      "Mike": 3177,
      "fas": 3178,
      "ffin": 3179,
      "gloom": 3180,
      "jail": 3181,
      "mild": 3182,
      "sum": 3183,
      "yet": 3184,
      "zip": 3185,
      "reco": 3186,
      "washed": 3187,
      "thief": 3188,
      "bet": 3189,
      "bean": 3190,
      "friendship": 3191,
      "grin": 3192,
      "muffin": 3193,
      "earth": 3194,
      "handle": 3195,
      "disgust": 3196,
      "sweetie": 3197,
      "ations": 3198,
      "resist": 3199,
      "sparkling": 3200,
      "tention": 3201,
      "message": 3202,
      "counting": 3203,
      "pilot": 3204,
      "astic": 3205,
      "ucet": 3206,
      "blowing": 3207,
      "examine": 3208,
      "surrender": 3209,
      "envious": 3210,
      "pattern": 3211,
      "succeed": 3212,
      "fasc": 3213,
      "'.": 3214,
      "Bill": 3215,
      "Pat": 3216,
      "aunt": 3217,
      "bake": 3218,
      "bump": 3219,
      "fan": 3220,
      "laser": 3221,
      "ms": 3222,
      "pump": 3223,
      "scr": 3224,
      "size": 3225,
      "tries": 3226,
      "vend": 3227,
      "zag": 3228,
      "theater": 3229,
      "incl": 3230,
      "rece": 3231,
      "repair": 3232,
      "enorm": 3233,
      "leop": 3234,
      "stat": 3235,
      "loll": 3236,
      "beet": 3237,
      "attention": 3238,
      "igzag": 3239,
      "chim": 3240,
      "somewhere": 3241,
      "hook": 3242,
      "hoop": 3243,
      "mechan": 3244,
      "starting": 3245,
      "Your": 3246,
      "older": 3247,
      "skirt": 3248,
      "anywhere": 3249,
      "club": 3250,
      "create": 3251,
      "shocked": 3252,
      "headed": 3253,
      "zebra": 3254,
      "windows": 3255,
      "Before": 3256,
      "balloons": 3257,
      "blackboard": 3258,
      "swamp": 3259,
      "quietly": 3260,
      "design": 3261,
      "distant": 3262,
      "pastel": 3263,
      "meeting": 3264,
      "grandpa": 3265,
      "stretch": 3266,
      "relaxed": 3267,
      "golden": 3268,
      "filthy": 3269,
      "accept": 3270,
      "banana": 3271,
      "second": 3272,
      "Steve": 3273,
      "pigeon": 3274,
      "library": 3275,
      "gloomy": 3276,
      "summer": 3277,
      "vendor": 3278,
      "enormous": 3279,
      "leopard": 3280,
      "mechanic": 3281,
      "Iâ": 3282,
      "Ne": 3283,
      "Ro": 3284,
      "Tilly": 3285,
      "cudd": 3286,
      "mas": 3287,
      "van": 3288,
      "wing": 3289,
      "yaw": 3290,
      "zing": 3291,
      "separ": 3292,
      "veil": 3293,
      "upid": 3294,
      "chirp": 3295,
      "goose": 3296,
      "fume": 3297,
      "holid": 3298,
      "inde": 3299,
      "delay": 3300,
      "faucet": 3301,
      "iest": 3302,
      "bul": 3303,
      "rules": 3304,
      "picks": 3305,
      "reading": 3306,
      "perfume": 3307,
      "cleaning": 3308,
      "ipop": 3309,
      "base": 3310,
      "trash": 3311,
      "floated": 3312,
      "bags": 3313,
      "wheat": 3314,
      "mixer": 3315,
      "Tweetie": 3316,
      "bounced": 3317,
      "rubber": 3318,
      "giggle": 3319,
      "pipe": 3320,
      "rolling": 3321,
      "kicked": 3322,
      "folder": 3323,
      "counted": 3324,
      "organize": 3325,
      "mission": 3326,
      "pants": 3327,
      "shells": 3328,
      "stretched": 3329,
      "Annie": 3330,
      "riding": 3331,
      "object": 3332,
      "energy": 3333,
      "compassionate": 3334,
      "newspaper": 3335,
      "creek": 3336,
      "envelope": 3337,
      "recogn": 3338,
      "fascin": 3339,
      "statue": 3340,
      "lollipop": 3341,
      "chimney": 3342,
      "holiday": 3343,
      "First": 3344,
      "cof": 3345,
      "gurt": 3346,
      "oat": 3347,
      "por": 3348,
      "rug": 3349,
      "suff": 3350,
      "tip": 3351,
      "usage": 3352,
      "yach": 3353,
      "rever": 3354,
      "arry": 3355,
      "isn": 3356,
      "sausage": 3357,
      "lose": 3358,
      "sheep": 3359,
      "ows": 3360,
      "fee": 3361,
      "petal": 3362,
      "coins": 3363,
      "oped": 3364,
      "jogged": 3365,
      "experi": 3366,
      "inky": 3367,
      "snugg": 3368,
      "floating": 3369,
      "climbing": 3370,
      "fields": 3371,
      "gging": 3372,
      "wandered": 3373,
      "imagination": 3374,
      "Juli": 3375,
      "œThatâ": 3376,
      "yogurt": 3377,
      "seeds": 3378,
      "prize": 3379,
      "revealed": 3380,
      "scooter": 3381,
      "vehicle": 3382,
      "disgusting": 3383,
      "beetle": 3384,
      "coffee": 3385,
      "yacht": 3386,
      "Liz": 3387,
      "Mis": 3388,
      "Nora": 3389,
      "Ral": 3390,
      "Snow": 3391,
      "Un": 3392,
      "avo": 3393,
      "bby": 3394,
      "cam": 3395,
      "dig": 3396,
      "gum": 3397,
      "mask": 3398,
      "nie": 3399,
      "pas": 3400,
      "ris": 3401,
      "scat": 3402,
      "tucked": 3403,
      "intell": 3404,
      "sty": 3405,
      "stupid": 3406,
      "beg": 3407,
      "below": 3408,
      "seum": 3409,
      "ppers": 3410,
      "urry": 3411,
      "coll": 3412,
      "museum": 3413,
      "rush": 3414,
      "didnâ": 3415,
      "bling": 3416,
      "surround": 3417,
      "nicely": 3418,
      "disagreed": 3419,
      "rested": 3420,
      "deliver": 3421,
      "tray": 3422,
      "trum": 3423,
      "float": 3424,
      "crazy": 3425,
      "perfectly": 3426,
      "Because": 3427,
      "bouncing": 3428,
      "scope": 3429,
      "lemonade": 3430,
      "country": 3431,
      "stirred": 3432,
      "shouting": 3433,
      "scale": 3434,
      "massage": 3435,
      "Ralph": 3436,
      "Snowy": 3437,
      "intellig": 3438,
      "Is": 3439,
      "Mag": 3440,
      "Sp": 3441,
      "ah": 3442,
      "cco": 3443,
      "cries": 3444,
      "ement": 3445,
      "fant": 3446,
      "hut": 3447,
      "hun": 3448,
      "ipper": 3449,
      "lend": 3450,
      "mbers": 3451,
      "pted": 3452,
      "super": 3453,
      "wi": 3454,
      "zipper": 3455,
      "ano": 3456,
      "resp": 3457,
      "reci": 3458,
      "hall": 3459,
      "onion": 3460,
      "weal": 3461,
      "endar": 3462,
      "illa": 3463,
      "helpless": 3464,
      "uded": 3465,
      "buzz": 3466,
      "skipping": 3467,
      "sunflower": 3468,
      "balls": 3469,
      "comb": 3470,
      "switch": 3471,
      "appro": 3472,
      "amazement": 3473,
      "afternoon": 3474,
      "explain": 3475,
      "dressed": 3476,
      "airport": 3477,
      "brea": 3478,
      "softly": 3479,
      "muscle": 3480,
      "pretending": 3481,
      "avail": 3482,
      "sity": 3483,
      "snowman": 3484,
      "œIâ": 3485,
      "calendar": 3486,
      "mystery": 3487,
      "gifted": 3488,
      "carrying": 3489,
      "splashing": 3490,
      "piano": 3491,
      "eagerly": 3492,
      "wrap": 3493,
      "peanuts": 3494,
      "bandage": 3495,
      "Chirp": 3496,
      "screw": 3497,
      "cherry": 3498,
      "complain": 3499,
      "Buzz": 3500,
      "microscope": 3501,
      "neighbourhood": 3502,
      "leaned": 3503,
      "spilled": 3504,
      "skills": 3505,
      "scrat": 3506,
      "intelligent": 3507,
      "Maggie": 3508,
      "available": 3509,
      "Cind": 3510,
      "Flo": 3511,
      "Gary": 3512,
      "Sunny": 3513,
      "cur": 3514,
      "cue": 3515,
      "dough": 3516,
      "ef": 3517,
      "five": 3518,
      "glove": 3519,
      "iver": 3520,
      "kang": 3521,
      "luck": 3522,
      "pine": 3523,
      "sle": 3524,
      "inch": 3525,
      "invest": 3526,
      "anda": 3527,
      "washer": 3528,
      "encoura": 3529,
      "aroo": 3530,
      "ingred": 3531,
      "stamp": 3532,
      "behave": 3533,
      "ates": 3534,
      "igate": 3535,
      "keys": 3536,
      "una": 3537,
      "lives": 3538,
      "forth": 3539,
      "shiver": 3540,
      "peach": 3541,
      "pebble": 3542,
      "!\",": 3543,
      "manage": 3544,
      "nobody": 3545,
      "nowhere": 3546,
      "quit": 3547,
      "quar": 3548,
      "putting": 3549,
      "speak": 3550,
      "teleph": 3551,
      "yours": 3552,
      "shows": 3553,
      "page": 3554,
      "comm": 3555,
      "offer": 3556,
      "doors": 3557,
      "shoulder": 3558,
      "blueberry": 3559,
      "boats": 3560,
      "crow": 3561,
      "flag": 3562,
      "rescue": 3563,
      "sleeping": 3564,
      "cooler": 3565,
      "People": 3566,
      "knock": 3567,
      "washing": 3568,
      "crawl": 3569,
      "spoiled": 3570,
      "burn": 3571,
      "bene": 3572,
      "roared": 3573,
      "chickens": 3574,
      "ticket": 3575,
      "sneeze": 3576,
      "dishwasher": 3577,
      "crib": 3578,
      "competitive": 3579,
      "whistling": 3580,
      "memories": 3581,
      "pumpkin": 3582,
      "Nemo": 3583,
      "fascinated": 3584,
      "trumpet": 3585,
      "Cindy": 3586,
      "kangaroo": 3587,
      "ingredient": 3588,
      "telephone": 3589,
      "Abig": 3590,
      "Yay": 3591,
      "ait": 3592,
      "apr": 3593,
      "bree": 3594,
      "bread": 3595,
      "gro": 3596,
      "lon": 3597,
      "nation": 3598,
      "pressed": 3599,
      "radi": 3600,
      "sent": 3601,
      "scare": 3602,
      "œLook": 3603,
      "request": 3604,
      "erc": 3605,
      "saving": 3606,
      "thirst": 3607,
      "plastic": 3608,
      "lier": 3609,
      "fortun": 3610,
      "goal": 3611,
      "exerc": 3612,
      "carto": 3613,
      "hedge": 3614,
      "iches": 3615,
      "reef": 3616,
      "tooth": 3617,
      "spade": 3618,
      "ache": 3619,
      "earlier": 3620,
      "rabbits": 3621,
      "beak": 3622,
      "perfor": 3623,
      "sort": 3624,
      "fine": 3625,
      "appreci": 3626,
      "settle": 3627,
      "dishes": 3628,
      "Emmy": 3629,
      "medi": 3630,
      "crash": 3631,
      "mistakes": 3632,
      "marry": 3633,
      "marched": 3634,
      "taller": 3635,
      "drawer": 3636,
      "thanks": 3637,
      "dancer": 3638,
      "understanding": 3639,
      "pengu": 3640,
      "point": 3641,
      "valley": 3642,
      "distur": 3643,
      "creatures": 3644,
      "solved": 3645,
      "pastry": 3646,
      "hoping": 3647,
      "model": 3648,
      "letters": 3649,
      "counter": 3650,
      "missile": 3651,
      "sandwiches": 3652,
      "motorcy": 3653,
      "ringing": 3654,
      "yoga": 3655,
      "poured": 3656,
      "beamed": 3657,
      "Clara": 3658,
      "strawberry": 3659,
      "petals": 3660,
      "snuggled": 3661,
      "camera": 3662,
      "passport": 3663,
      "investigate": 3664,
      "beneath": 3665,
      "ingredients": 3666,
      "Abigail": 3667,
      "breeze": 3668,
      "radio": 3669,
      "motorcycle": 3670,
      "Ow": 3671,
      "Pi": 3672,
      "Tru": 3673,
      "aid": 3674,
      "cad": 3675,
      "mare": 3676,
      "mpo": 3677,
      "ray": 3678,
      "sne": 3679,
      "tire": 3680,
      "wire": 3681,
      "xious": 3682,
      "hesit": 3683,
      "anxious": 3684,
      "incre": 3685,
      "toes": 3686,
      "enth": 3687,
      "salad": 3688,
      "llen": 3689,
      "stack": 3690,
      "bey": 3691,
      "ceiling": 3692,
      "ribb": 3693,
      "chor": 3694,
      "gear": 3695,
      "boots": 3696,
      "hter": 3697,
      "pected": 3698,
      "peppers": 3699,
      "coo": 3700,
      "icing": 3701,
      "opera": 3702,
      "novel": 3703,
      "Everyday": 3704,
      "laughter": 3705,
      "sunset": 3706,
      "sunlight": 3707,
      "anyway": 3708,
      "shampo": 3709,
      "bears": 3710,
      "laughs": 3711,
      "trap": 3712,
      "means": 3713,
      "lions": 3714,
      "Beth": 3715,
      "danger": 3716,
      "praised": 3717,
      "fallen": 3718,
      "burning": 3719,
      "diary": 3720,
      "fingers": 3721,
      "ignored": 3722,
      "admir": 3723,
      "balanc": 3724,
      "shade": 3725,
      "popcorn": 3726,
      "accepted": 3727,
      "tools": 3728,
      "wipe": 3729,
      "slept": 3730,
      "quarrel": 3731,
      "thirsty": 3732,
      "fortunately": 3733,
      "enthus": 3734,
      "shampoo": 3735,
      "Cla": 3736,
      "Have": 3737,
      "Jer": 3738,
      "Milly": 3739,
      "Rex": 3740,
      "Rob": 3741,
      "Rose": 3742,
      "azz": 3743,
      "dar": 3744,
      "lime": 3745,
      "oats": 3746,
      "si": 3747,
      "zigzag": 3748,
      "inking": 3749,
      "arian": 3750,
      "These": 3751,
      "levis": 3752,
      "leton": 3753,
      "orilla": 3754,
      "thum": 3755,
      "hats": 3756,
      "sofa": 3757,
      "igloo": 3758,
      "keleton": 3759,
      "weap": 3760,
      "rake": 3761,
      "notice": 3762,
      "odd": 3763,
      "urge": 3764,
      "stove": 3765,
      "birdcage": 3766,
      "makeup": 3767,
      "bury": 3768,
      "televis": 3769,
      "popped": 3770,
      "houses": 3771,
      "warning": 3772,
      "observe": 3773,
      "chess": 3774,
      "appla": 3775,
      "bravely": 3776,
      "truth": 3777,
      "impress": 3778,
      "nightmare": 3779,
      "stickers": 3780,
      "track": 3781,
      "missing": 3782,
      "brothers": 3783,
      "mention": 3784,
      "haircut": 3785,
      "squirrels": 3786,
      "ggy": 3787,
      "apart": 3788,
      "crawling": 3789,
      "lively": 3790,
      "uniform": 3791,
      "clearing": 3792,
      "steps": 3793,
      "cows": 3794,
      "crossed": 3795,
      "collecting": 3796,
      "paws": 3797,
      "cherries": 3798,
      "decorate": 3799,
      "decorations": 3800,
      "fearful": 3801,
      "popular": 3802,
      "microphone": 3803,
      "humble": 3804,
      "curtains": 3805,
      "measuring": 3806,
      "sniffed": 3807,
      "chirping": 3808,
      "Unfortunately": 3809,
      "collar": 3810,
      "wealthy": 3811,
      "Chirpy": 3812,
      "apron": 3813,
      "grocer": 3814,
      "mediately": 3815,
      "Jerry": 3816,
      "television": 3817,
      "..": 3818,
      "Cat": 3819,
      "Each": 3820,
      "Jess": 3821,
      "Ok": 3822,
      "aff": 3823,
      "dust": 3824,
      "dive": 3825,
      "ging": 3826,
      "ither": 3827,
      "lab": 3828,
      "mall": 3829,
      "tion": 3830,
      "ues": 3831,
      "anchor": 3832,
      "lected": 3833,
      "stadi": 3834,
      "staff": 3835,
      "loe": 3836,
      "thunder": 3837,
      "neat": 3838,
      "celet": 3839,
      "sheet": 3840,
      "ripe": 3841,
      "unhappy": 3842,
      "unpack": 3843,
      "ween": 3844,
      "weighed": 3845,
      "chance": 3846,
      "enter": 3847,
      "moms": 3848,
      "raise": 3849,
      "short": 3850,
      "hose": 3851,
      "deaf": 3852,
      "melt": 3853,
      "cob": 3854,
      "helps": 3855,
      "starts": 3856,
      "loops": 3857,
      "pride": 3858,
      "spending": 3859,
      "Joy": 3860,
      "spell": 3861,
      "doggy": 3862,
      "comed": 3863,
      "fastest": 3864,
      "bracelet": 3865,
      "shoe": 3866,
      "restless": 3867,
      "magnet": 3868,
      "torn": 3869,
      "twink": 3870,
      "trave": 3871,
      "welcomed": 3872,
      "created": 3873,
      "happens": 3874,
      "imagine": 3875,
      "belongs": 3876,
      "univer": 3877,
      "Chloe": 3878,
      "loaded": 3879,
      "squeeze": 3880,
      "video": 3881,
      "Bobo": 3882,
      "palm": 3883,
      "shooting": 3884,
      "between": 3885,
      "grinned": 3886,
      "Julia": 3887,
      "Miss": 3888,
      "begin": 3889,
      "breathe": 3890,
      "weapon": 3891,
      "stadium": 3892,
      "Ex": 3893,
      "Mim": 3894,
      "Po": 3895,
      "flex": 3896,
      "gorilla": 3897,
      "sla": 3898,
      "œCan": 3899,
      "intro": 3900,
      "inarian": 3901,
      "stic": 3902,
      "ornam": 3903,
      "herb": 3904,
      "beep": 3905,
      "ckey": 3906,
      "veter": 3907,
      "weep": 3908,
      "happier": 3909,
      "oking": 3910,
      "rod": 3911,
      "hockey": 3912,
      "umbre": 3913,
      "ranny": 3914,
      "spike": 3915,
      "tear": 3916,
      "knows": 3917,
      "paused": 3918,
      "collected": 3919,
      "raining": 3920,
      "sett": 3921,
      "sque": 3922,
      "choice": 3923,
      "parent": 3924,
      "twist": 3925,
      "twisted": 3926,
      "guess": 3927,
      "darkness": 3928,
      "trail": 3929,
      "married": 3930,
      "tub": 3931,
      "However": 3932,
      "presents": 3933,
      "zoomed": 3934,
      "prepare": 3935,
      "helmet": 3936,
      "stuffed": 3937,
      "film": 3938,
      "flapped": 3939,
      "agreement": 3940,
      "apologized": 3941,
      "kneel": 3942,
      "destroyed": 3943,
      "structure": 3944,
      "avocad": 3945,
      "surrounded": 3946,
      "approached": 3947,
      "exercise": 3948,
      "penguin": 3949,
      "Claire": 3950,
      "impressive": 3951,
      "Mimi": 3952,
      "introd": 3953,
      "veterinarian": 3954,
      "umbrella": 3955,
      "Bunny": 3956,
      "Boo": 3957,
      "Did": 3958,
      "Granny": 3959,
      "King": 3960,
      "Kim": 3961,
      "Luck": 3962,
      "Luna": 3963,
      "chat": 3964,
      "cts": 3965,
      "dic": 3966,
      "dire": 3967,
      "grill": 3968,
      "jazz": 3969,
      "mome": 3970,
      "olive": 3971,
      "panda": 3972,
      "rhin": 3973,
      "simp": 3974,
      "skeleton": 3975,
      "wife": 3976,
      "yar": 3977,
      "ants": 3978,
      "infant": 3979,
      "waving": 3980,
      "refre": 3981,
      "recomm": 3982,
      "eros": 3983,
      "immediately": 3984,
      "orable": 3985,
      "beside": 3986,
      "cereal": 3987,
      "adorable": 3988,
      "unlock": 3989,
      "chip": 3990,
      "fest": 3991,
      "entered": 3992,
      "thermome": 3993,
      "cart": 3994,
      "names": 3995,
      "rang": 3996,
      "worth": 3997,
      "caut": 3998,
      "decis": 3999,
      "buck": 4000,
      "buried": 4001,
      "overjoy": 4002,
      "cheek": 4003,
      "perm": 4004,
      "perched": 4005,
      "surprises": 4006,
      "iastic": 4007,
      "setting": 4008,
      "display": 4009,
      "disappear": 4010,
      "remembers": 4011,
      "pota": 4012,
      "bookcase": 4013,
      "grey": 4014,
      "blueberries": 4015,
      "badly": 4016,
      "warmth": 4017,
      "sandcastle": 4018,
      "planted": 4019,
      "cutting": 4020,
      "moments": 4021,
      "gathering": 4022,
      "ppery": 4023,
      "solut": 4024,
      "rubbing": 4025,
      "oceros": 4026,
      "slippery": 4027,
      "examined": 4028,
      "flutter": 4029,
      "hanging": 4030,
      "destination": 4031,
      "Buzzy": 4032,
      "discovering": 4033,
      "jellyfish": 4034,
      "human": 4035,
      "suitcase": 4036,
      "struggling": 4037,
      "ordered": 4038,
      "trembling": 4039,
      "Suzy": 4040,
      "battery": 4041,
      "beans": 4042,
      "porch": 4043,
      "experience": 4044,
      "enthusiastic": 4045,
      "tionary": 4046,
      "flexible": 4047,
      "dictionary": 4048,
      "rhinoceros": 4049,
      "simple": 4050,
      "yarn": 4051,
      "refreshed": 4052,
      "thermometer": 4053,
      "overjoyed": 4054,
      "Abbie": 4055,
      "Binky": 4056,
      "El": 4057,
      "Je": 4058,
      "Red": 4059,
      "Sh": 4060,
      "Slow": 4061,
      "aked": 4062,
      "bicy": 4063,
      "cense": 4064,
      "ding": 4065,
      "dom": 4066,
      "equ": 4067,
      "gue": 4068,
      "hy": 4069,
      "hon": 4070,
      "iv": 4071,
      "ival": 4072,
      "pitch": 4073,
      "rum": 4074,
      "since": 4075,
      "uli": 4076,
      "vac": 4077,
      "zer": 4078,
      "zipped": 4079,
      "œMommy": 4080,
      "œNo": 4081,
      "ining": 4082,
      "waist": 4083,
      "reinde": 4084,
      "sting": 4085,
      "bel": 4086,
      "igned": 4087,
      "kets": 4088,
      "alive": 4089,
      "ason": 4090,
      "weigh": 4091,
      "myself": 4092,
      "youâ": 4093,
      "license": 4094,
      "abby": 4095,
      "worm": 4096,
      "cauli": 4097,
      "uddy": 4098,
      "finds": 4099,
      "blouse": 4100,
      "shower": 4101,
      "ction": 4102,
      "letâ": 4103,
      "keeping": 4104,
      "chores": 4105,
      "bathe": 4106,
      "drop": 4107,
      "pared": 4108,
      "sandbox": 4109,
      "flame": 4110,
      "drawings": 4111,
      "Bee": 4112,
      "insisted": 4113,
      "breaks": 4114,
      "coloured": 4115,
      "practicing": 4116,
      "scooped": 4117,
      "easier": 4118,
      "attach": 4119,
      "shrugged": 4120,
      "puzzles": 4121,
      "June": 4122,
      "Julie": 4123,
      "chewed": 4124,
      "wheels": 4125,
      "Betsy": 4126,
      "sneezed": 4127,
      "straight": 4128,
      "squeezed": 4129,
      "tricks": 4130,
      "marbles": 4131,
      "repeat": 4132,
      "Bye": 4133,
      "improve": 4134,
      "yawned": 4135,
      "separate": 4136,
      "hunter": 4137,
      "True": 4138,
      "sneak": 4139,
      "thumb": 4140,
      "settled": 4141,
      "Luckily": 4142,
      "festival": 4143,
      "permit": 4144,
      "Mor": 4145,
      "Pandy": 4146,
      "Todd": 4147,
      "Wait": 4148,
      "bab": 4149,
      "bank": 4150,
      "dess": 4151,
      "emer": 4152,
      "gain": 4153,
      "nur": 4154,
      "obey": 4155,
      "pho": 4156,
      "pany": 4157,
      "send": 4158,
      "sword": 4159,
      "œHello": 4160,
      "inter": 4161,
      "toast": 4162,
      "reward": 4163,
      "itar": 4164,
      "argu": 4165,
      "ides": 4166,
      "sailing": 4167,
      "stage": 4168,
      "thm": 4169,
      "adult": 4170,
      "ric": 4171,
      "unk": 4172,
      "unite": 4173,
      "ups": 4174,
      "alright": 4175,
      "asing": 4176,
      "weight": 4177,
      "chir": 4178,
      "shield": 4179,
      "Its": 4180,
      "agers": 4181,
      "dear": 4182,
      "mop": 4183,
      "news": 4184,
      "covery": 4185,
      "costum": 4186,
      "birdie": 4187,
      "seeing": 4188,
      "udge": 4189,
      "mule": 4190,
      "everyday": 4191,
      "scarf": 4192,
      "poked": 4193,
      "antly": 4194,
      "master": 4195,
      "skull": 4196,
      "company": 4197,
      "famil": 4198,
      "kindly": 4199,
      "feelings": 4200,
      "discovery": 4201,
      "crept": 4202,
      "paints": 4203,
      "brocco": 4204,
      "following": 4205,
      "ancake": 4206,
      "fireman": 4207,
      "flour": 4208,
      "guitar": 4209,
      "frogs": 4210,
      "hearts": 4211,
      "smells": 4212,
      "castles": 4213,
      "provide": 4214,
      "mustache": 4215,
      "trains": 4216,
      "blankets": 4217,
      "villagers": 4218,
      "sprink": 4219,
      "tune": 4220,
      "tube": 4221,
      "grandmother": 4222,
      "lecture": 4223,
      "easily": 4224,
      "spoil": 4225,
      "problems": 4226,
      "roaring": 4227,
      "kicking": 4228,
      "slip": 4229,
      "shrink": 4230,
      "machines": 4231,
      "weeks": 4232,
      "respectful": 4233,
      "supply": 4234,
      "support": 4235,
      "slides": 4236,
      "measured": 4237,
      "twigs": 4238,
      "bumped": 4239,
      "encouraged": 4240,
      "cooked": 4241,
      "ornaments": 4242,
      "buckle": 4243,
      "Slowly": 4244,
      "bicycle": 4245,
      "hythm": 4246,
      "reindeer": 4247,
      "Moral": 4248,
      "photo": 4249,
      "broccoli": 4250,
      "Fo": 4251,
      "Gre": 4252,
      "Hop": 4253,
      "Kelly": 4254,
      "Lou": 4255,
      "Mon": 4256,
      "Nana": 4257,
      "Sun": 4258,
      "Tina": 4259,
      "drain": 4260,
      "daisy": 4261,
      "fut": 4262,
      "kers": 4263,
      "lk": 4264,
      "lum": 4265,
      "mand": 4266,
      "sna": 4267,
      "sink": 4268,
      "scold": 4269,
      "sses": 4270,
      "vroom": 4271,
      "œWe": 4272,
      "œOh": 4273,
      "heel": 4274,
      "ann": 4275,
      "edy": 4276,
      "toile": 4277,
      "replace": 4278,
      "half": 4279,
      "stitch": 4280,
      "soil": 4281,
      "aded": 4282,
      "rick": 4283,
      "asses": 4284,
      "web": 4285,
      "liqu": 4286,
      "forgave": 4287,
      "boo": 4288,
      "ideas": 4289,
      "holes": 4290,
      "copper": 4291,
      "worries": 4292,
      "cap": 4293,
      "gotten": 4294,
      "Jacky": 4295,
      "accompl": 4296,
      "wardro": 4297,
      "steam": 4298,
      "steak": 4299,
      "chalk": 4300,
      "ffic": 4301,
      "Instead": 4302,
      "traffic": 4303,
      "barrel": 4304,
      "pedal": 4305,
      "deeper": 4306,
      "iously": 4307,
      "forgotten": 4308,
      "powder": 4309,
      "growled": 4310,
      "falls": 4311,
      "celebration": 4312,
      "pulling": 4313,
      "throwing": 4314,
      "hanger": 4315,
      "glowing": 4316,
      "studying": 4317,
      "pinch": 4318,
      "selling": 4319,
      "menu": 4320,
      "recognized": 4321,
      "reverse": 4322,
      "effort": 4323,
      "admiring": 4324,
      "Exc": 4325,
      "avocado": 4326,
      "vacation": 4327,
      "dessert": 4328,
      "nurse": 4329,
      "future": 4330,
      "lumber": 4331,
      "toilet": 4332,
      "liquid": 4333,
      "wardrobe": 4334,
      "Friend": 4335,
      "Lizz": 4336,
      "Ouch": 4337,
      "Olive": 4338,
      "Whis": 4339,
      "az": 4340,
      "during": 4341,
      "either": 4342,
      "ience": 4343,
      "lang": 4344,
      "lines": 4345,
      "mm": 4346,
      "mug": 4347,
      "nal": 4348,
      "osity": 4349,
      "pad": 4350,
      "pun": 4351,
      "sir": 4352,
      "sigh": 4353,
      "sip": 4354,
      "une": 4355,
      "ude": 4356,
      "uage": 4357,
      "vin": 4358,
      "vor": 4359,
      "zen": 4360,
      "œThank": 4361,
      "œWhy": 4362,
      "rele": 4363,
      "ery": 4364,
      "waste": 4365,
      "stal": 4366,
      "ory": 4367,
      "becoming": 4368,
      "seal": 4369,
      "seag": 4370,
      "happiest": 4371,
      "exact": 4372,
      "demand": 4373,
      "meowed": 4374,
      "fog": 4375,
      "backpack": 4376,
      "prune": 4377,
      "laid": 4378,
      "udy": 4379,
      "jogging": 4380,
      "whip": 4381,
      "acy": 4382,
      "sunrise": 4383,
      "papers": 4384,
      "tap": 4385,
      "permission": 4386,
      "Afterwards": 4387,
      "conf": 4388,
      "ipment": 4389,
      "heads": 4390,
      "magaz": 4391,
      "fireplace": 4392,
      "opens": 4393,
      "frozen": 4394,
      "baking": 4395,
      "parts": 4396,
      "planes": 4397,
      "planet": 4398,
      "stops": 4399,
      "towers": 4400,
      "hills": 4401,
      "wasnâ": 4402,
      "sparkles": 4403,
      "oranges": 4404,
      "cups": 4405,
      "napkin": 4406,
      "journal": 4407,
      "falling": 4408,
      "comfort": 4409,
      "value": 4410,
      "bouncy": 4411,
      "network": 4412,
      "bringing": 4413,
      "pulls": 4414,
      "neighbors": 4415,
      "winter": 4416,
      "attached": 4417,
      "patiently": 4418,
      "puddles": 4419,
      "folded": 4420,
      "zooming": 4421,
      "prevent": 4422,
      "jamas": 4423,
      "glowed": 4424,
      "candles": 4425,
      "jewelry": 4426,
      "shadows": 4427,
      "marching": 4428,
      "Star": 4429,
      "soldier": 4430,
      "remained": 4431,
      "Always": 4432,
      "achieve": 4433,
      "bulb": 4434,
      "suffer": 4435,
      "sausages": 4436,
      "Spike": 4437,
      "equipment": 4438,
      "cauliflower": 4439,
      "chirped": 4440,
      "Green": 4441,
      "Lizzie": 4442,
      "language": 4443,
      "seagull": 4444,
      "magazine": 4445,
      "Bun": 4446,
      "Di": 4447,
      "Fu": 4448,
      "Furry": 4449,
      "Kat": 4450,
      "List": 4451,
      "Lul": 4452,
      "Larry": 4453,
      "Not": 4454,
      "Or": 4455,
      "Qu": 4456,
      "Sha": 4457,
      "Tin": 4458,
      "Unt": 4459,
      "Yum": 4460,
      "ator": 4461,
      "cus": 4462,
      "dd": 4463,
      "fy": 4464,
      "gir": 4465,
      "gained": 4466,
      "none": 4467,
      "nies": 4468,
      "ox": 4469,
      "oak": 4470,
      "tide": 4471,
      "wigg": 4472,
      "ygen": 4473,
      "œMom": 4474,
      "œDo": 4475,
      "reg": 4476,
      "ita": 4477,
      "ites": 4478,
      "ount": 4479,
      "ising": 4480,
      "lest": 4481,
      "sters": 4482,
      "thri": 4483,
      "begged": 4484,
      "uncle": 4485,
      "alarm": 4486,
      "lip": 4487,
      "lips": 4488,
      "smar": 4489,
      "shot": 4490,
      "area": 4491,
      "aren": 4492,
      "caring": 4493,
      "ranch": 4494,
      "staring": 4495,
      "capt": 4496,
      "elf": 4497,
      "sadness": 4498,
      "downstairs": 4499,
      "wanting": 4500,
      "items": 4501,
      "ventured": 4502,
      "Johnson": 4503,
      "pajamas": 4504,
      "checked": 4505,
      "eaten": 4506,
      "prettie": 4507,
      "jumps": 4508,
      "cont": 4509,
      "safety": 4510,
      "letting": 4511,
      "shovel": 4512,
      "challen": 4513,
      "monkeys": 4514,
      "bowed": 4515,
      "drops": 4516,
      "result": 4517,
      "written": 4518,
      "tripped": 4519,
      "proper": 4520,
      "cupcake": 4521,
      "hotel": 4522,
      "affe": 4523,
      "glasses": 4524,
      "horses": 4525,
      "served": 4526,
      "actually": 4527,
      "figured": 4528,
      "studied": 4529,
      "reminder": 4530,
      "sweater": 4531,
      "shouts": 4532,
      "silent": 4533,
      "trusted": 4534,
      "neighbours": 4535,
      "arrows": 4536,
      "socks": 4537,
      "cabinet": 4538,
      "pearl": 4539,
      "reveal": 4540,
      "competition": 4541,
      "notebook": 4542,
      "remain": 4543,
      "achieved": 4544,
      "included": 4545,
      "Robbie": 4546,
      "baseball": 4547,
      "scattered": 4548,
      "scratch": 4549,
      "pages": 4550,
      "disturbed": 4551,
      "decision": 4552,
      "potato": 4553,
      "snapped": 4554,
      "Listen": 4555,
      "Lulu": 4556,
      "Tiny": 4557,
      "Until": 4558,
      "giraffe": 4559,
      "oxygen": 4560,
      "prettiest": 4561,
      "challenge": 4562,
      "Co": 4563,
      "Doug": 4564,
      "Fro": 4565,
      "God": 4566,
      "Happ": 4567,
      "Ry": 4568,
      "Rita": 4569,
      "Spe": 4570,
      "Zoom": 4571,
      "bare": 4572,
      "ccer": 4573,
      "fis": 4574,
      "fought": 4575,
      "gs": 4576,
      "iar": 4577,
      "iel": 4578,
      "lung": 4579,
      "nce": 4580,
      "sway": 4581,
      "vas": 4582,
      "vic": 4583,
      "wed": 4584,
      "ye": 4585,
      "zie": 4586,
      "œDon": 4587,
      "€”": 4588,
      "intr": 4589,
      "ented": 4590,
      "orts": 4591,
      "nect": 4592,
      "neath": 4593,
      "hate": 4594,
      "celer": 4595,
      "sel": 4596,
      "sore": 4597,
      "soccer": 4598,
      "igued": 4599,
      "riage": 4600,
      "plays": 4601,
      "boom": 4602,
      "weren": 4603,
      "hopes": 4604,
      "carriage": 4605,
      "urried": 4606,
      "member": 4607,
      "starfish": 4608,
      "canâ": 4609,
      "canvas": 4610,
      "owned": 4611,
      "homes": 4612,
      "aches": 4613,
      "poke": 4614,
      "poem": 4615,
      "anytime": 4616,
      "comfy": 4617,
      "cheap": 4618,
      "perature": 4619,
      "izes": 4620,
      "wherever": 4621,
      "turning": 4622,
      "hurried": 4623,
      "ledge": 4624,
      "wondering": 4625,
      "choo": 4626,
      "sings": 4627,
      "crum": 4628,
      "sticker": 4629,
      "sweets": 4630,
      "jeep": 4631,
      "rescu": 4632,
      "fixing": 4633,
      "stron": 4634,
      "answers": 4635,
      "holds": 4636,
      "Someone": 4637,
      "freezer": 4638,
      "comforted": 4639,
      "kisses": 4640,
      "basketball": 4641,
      "scurried": 4642,
      "gifts": 4643,
      "lawn": 4644,
      "Daniel": 4645,
      "flavor": 4646,
      "pillows": 4647,
      "completed": 4648,
      "sprayed": 4649,
      "surrendered": 4650,
      "pupil": 4651,
      "bloomed": 4652,
      "mayor": 4653,
      "struggled": 4654,
      "repeats": 4655,
      "tremble": 4656,
      "temperature": 4657,
      "Suzie": 4658,
      "receive": 4659,
      "superhero": 4660,
      "respon": 4661,
      "buzzing": 4662,
      "Floppy": 4663,
      "crowd": 4664,
      "balancing": 4665,
      "cautiously": 4666,
      "familiar": 4667,
      "Follow": 4668,
      "Whiskers": 4669,
      "exactly": 4670,
      "Fuzzy": 4671,
      "thrilled": 4672,
      "Happy": 4673,
      "Ryan": 4674,
      "barely": 4675,
      "celery": 4676,
      "Ali": 4677,
      "Abby": 4678,
      "Bird": 4679,
      "Get": 4680,
      "Judy": 4681,
      "Nina": 4682,
      "Rab": 4683,
      "Rover": 4684,
      "Stell": 4685,
      "Take": 4686,
      "bin": 4687,
      "cable": 4688,
      "event": 4689,
      "hunt": 4690,
      "lter": 4691,
      "olives": 4692,
      "pite": 4693,
      "padd": 4694,
      "snap": 4695,
      "sense": 4696,
      "signed": 4697,
      "tugged": 4698,
      "wine": 4699,
      "zipping": 4700,
      "œLet": 4701,
      "œThis": 4702,
      "tore": 4703,
      "tour": 4704,
      "tonight": 4705,
      "onwards": 4706,
      "argue": 4707,
      "iders": 4708,
      "stable": 4709,
      "loving": 4710,
      "beha": 4711,
      "beat": 4712,
      "igno": 4713,
      "ambul": 4714,
      "ppies": 4715,
      "allow": 4716,
      "unpacked": 4717,
      "entire": 4718,
      "outfit": 4719,
      "raised": 4720,
      "pears": 4721,
      "meat": 4722,
      "rance": 4723,
      "backed": 4724,
      "?\",": 4725,
      "mance": 4726,
      "worse": 4727,
      "icky": 4728,
      "brings": 4729,
      "speaking": 4730,
      "tease": 4731,
      "bbled": 4732,
      "post": 4733,
      "uced": 4734,
      "however": 4735,
      "knowledge": 4736,
      "offic": 4737,
      "izing": 4738,
      "bedtime": 4739,
      "contest": 4740,
      "fied": 4741,
      "workers": 4742,
      "realize": 4743,
      "lotion": 4744,
      "monsters": 4745,
      "follows": 4746,
      "difference": 4747,
      "airplane": 4748,
      "ladybug": 4749,
      "parked": 4750,
      "satis": 4751,
      "moves": 4752,
      "dreamt": 4753,
      "printed": 4754,
      "foxes": 4755,
      "strum": 4756,
      "buildings": 4757,
      "believed": 4758,
      "drinking": 4759,
      "iggy": 4760,
      "Peanut": 4761,
      "Something": 4762,
      "freeze": 4763,
      "Flora": 4764,
      "pigs": 4765,
      "celebrating": 4766,
      "wouldnâ": 4767,
      "scrubbed": 4768,
      "giggling": 4769,
      "score": 4770,
      "activ": 4771,
      "grape": 4772,
      "nicer": 4773,
      "drinks": 4774,
      "eagle": 4775,
      "teaching": 4776,
      "escaped": 4777,
      "Remember": 4778,
      "stirring": 4779,
      "grabs": 4780,
      "rockets": 4781,
      "gaze": 4782,
      "sliding": 4783,
      "soaring": 4784,
      "cushions": 4785,
      "campfire": 4786,
      "objects": 4787,
      "cricket": 4788,
      "nails": 4789,
      "Carol": 4790,
      "œYouâ": 4791,
      "knelt": 4792,
      "muffins": 4793,
      "scatter": 4794,
      "hallway": 4795,
      "muscles": 4796,
      "cartoons": 4797,
      "performance": 4798,
      "hesitated": 4799,
      "beginning": 4800,
      "fluttering": 4801,
      "scolded": 4802,
      "captain": 4803,
      "properly": 4804,
      "intrigued": 4805,
      "Stella": 4806,
      "ambulance": 4807,
      "Ah": 4808,
      "Clar": 4809,
      "Holly": 4810,
      "Kay": 4811,
      "Mic": 4812,
      "Mmm": 4813,
      "Nut": 4814,
      "Nee": 4815,
      "Pam": 4816,
      "Rory": 4817,
      "Sim": 4818,
      "Sad": 4819,
      "Shar": 4820,
      "Since": 4821,
      "Ty": 4822,
      "Tabby": 4823,
      "Ye": 4824,
      "bill": 4825,
      "cro": 4826,
      "dried": 4827,
      "fits": 4828,
      "gers": 4829,
      "ived": 4830,
      "iers": 4831,
      "mittens": 4832,
      "muddy": 4833,
      "ost": 4834,
      "oil": 4835,
      "press": 4836,
      "pancake": 4837,
      "rup": 4838,
      "tasks": 4839,
      "unex": 4840,
      "ws": 4841,
      "œMy": 4842,
      "hest": 4843,
      "reas": 4844,
      "reaches": 4845,
      "itches": 4846,
      "omed": 4847,
      "isies": 4848,
      "impossible": 4849,
      "secre": 4850,
      "shelter": 4851,
      "ading": 4852,
      "rior": 4853,
      "outdoors": 4854,
      "golf": 4855,
      "Itâ": 4856,
      "exit": 4857,
      "expected": 4858,
      "cards": 4859,
      "mel": 4860,
      "meow": 4861,
      "melon": 4862,
      "sidewalk": 4863,
      "stom": 4864,
      "rubs": 4865,
      "bbles": 4866,
      "acorn": 4867,
      "uses": 4868,
      "maid": 4869,
      "ishment": 4870,
      "warrior": 4871,
      "swung": 4872,
      "wonâ": 4873,
      "underneath": 4874,
      "ilda": 4875,
      "works": 4876,
      "shopping": 4877,
      "curiosity": 4878,
      "crystal": 4879,
      "colored": 4880,
      "sterday": 4881,
      "single": 4882,
      "dresser": 4883,
      "wooden": 4884,
      "Doggy": 4885,
      "parrot": 4886,
      "gues": 4887,
      "planned": 4888,
      "coral": 4889,
      "continue": 4890,
      "creating": 4891,
      "tastes": 4892,
      "Beep": 4893,
      "sparkle": 4894,
      "matches": 4895,
      "emma": 4896,
      "insist": 4897,
      "bathtub": 4898,
      "teaches": 4899,
      "daisies": 4900,
      "winner": 4901,
      "mailman": 4902,
      "burned": 4903,
      "spoons": 4904,
      "piles": 4905,
      "prepared": 4906,
      "invit": 4907,
      "protected": 4908,
      "helle": 4909,
      "mountains": 4910,
      "silence": 4911,
      "cardboard": 4912,
      "leader": 4913,
      "sights": 4914,
      "price": 4915,
      "soared": 4916,
      "apologize": 4917,
      "temple": 4918,
      "whistled": 4919,
      "barking": 4920,
      "soldiers": 4921,
      "discussing": 4922,
      "fireworks": 4923,
      "patterns": 4924,
      "received": 4925,
      "cartoon": 4926,
      "appreciate": 4927,
      "increase": 4928,
      "six": 4929,
      "applauded": 4930,
      "mentioned": 4931,
      "groceries": 4932,
      "solution": 4933,
      "Shann": 4934,
      "Friends": 4935,
      "released": 4936,
      "demanded": 4937,
      "nectar": 4938,
      "Rabbit": 4939,
      "officer": 4940,
      "Kayla": 4941,
      "Michelle": 4942,
      "unexpected": 4943,
      "secrets": 4944,
      "Shannon": 4945,
      "!'": 4946,
      "Ad": 4947,
      "Den": 4948,
      "Day": 4949,
      "Dot": 4950,
      "Dina": 4951,
      "Er": 4952,
      "Ging": 4953,
      "Ja": 4954,
      "Ke": 4955,
      "Like": 4956,
      "Nick": 4957,
      "Out": 4958,
      "Put": 4959,
      "Pudd": 4960,
      "Tess": 4961,
      "Tues": 4962,
      "bang": 4963,
      "bones": 4964,
      "cous": 4965,
      "crun": 4966,
      "digg": 4967,
      "fer": 4968,
      "fab": 4969,
      "fash": 4970,
      "jug": 4971,
      "oas": 4972,
      "ping": 4973,
      "rhythm": 4974,
      "sie": 4975,
      "sizes": 4976,
      "tar": 4977,
      "tug": 4978,
      "yucky": 4979,
      "todd": 4980,
      "wags": 4981,
      "release": 4982,
      "haust": 4983,
      "iding": 4984,
      "salt": 4985,
      "imy": 4986,
      "immer": 4987,
      "stro": 4988,
      "lody": 4989,
      "thir": 4990,
      "thro": 4991,
      "third": 4992,
      "herman": 4993,
      "hated": 4994,
      "cky": 4995,
      "shelves": 4996,
      "soak": 4997,
      "history": 4998,
      "plates": 4999,
      "united": 5000,
      "chuck": 5001,
      "entrance": 5002,
      "racing": 5003,
      "shmall": 5004,
      "exhaust": 5005,
      "cared": 5006,
      "urged": 5007,
      "coach": 5008,
      "stomach": 5009,
      "sports": 5010,
      "spiders": 5011,
      "wallet": 5012,
      "Jose": 5013,
      "spear": 5014,
      "rust": 5015,
      "nah": 5016,
      "nav": 5017,
      "rooms": 5018,
      "blings": 5019,
      "puppies": 5020,
      "watered": 5021,
      "swirl": 5022,
      "izon": 5023,
      "explorer": 5024,
      "hardly": 5025,
      "bites": 5026,
      "stern": 5027,
      "yelling": 5028,
      "strangers": 5029,
      "snuck": 5030,
      "opening": 5031,
      "creamy": 5032,
      "trapped": 5033,
      "catching": 5034,
      "marshmall": 5035,
      "petted": 5036,
      "claws": 5037,
      "creation": 5038,
      "strings": 5039,
      "Becky": 5040,
      "situ": 5041,
      "armchair": 5042,
      "horizon": 5043,
      "powers": 5044,
      "bikes": 5045,
      "desert": 5046,
      "mixture": 5047,
      "valued": 5048,
      "circus": 5049,
      "pasta": 5050,
      "neighborhood": 5051,
      "gency": 5052,
      "burst": 5053,
      "lemons": 5054,
      "Goodbye": 5055,
      "folding": 5056,
      "precious": 5057,
      "invite": 5058,
      "Really": 5059,
      "tigers": 5060,
      "trol": 5061,
      "adding": 5062,
      "shakes": 5063,
      "rides": 5064,
      "crackers": 5065,
      "gracefully": 5066,
      "struck": 5067,
      "spaceship": 5068,
      "tricky": 5069,
      "Charles": 5070,
      "Brownie": 5071,
      "sniff": 5072,
      "Maya": 5073,
      "barks": 5074,
      "memory": 5075,
      "completely": 5076,
      "strike": 5077,
      "improved": 5078,
      "discussed": 5079,
      "succeeded": 5080,
      "Patrick": 5081,
      "vanished": 5082,
      "yawn": 5083,
      "indeed": 5084,
      "suffered": 5085,
      "countryside": 5086,
      "respons": 5087,
      "curled": 5088,
      "tickets": 5089,
      "siblings": 5090,
      "tracks": 5091,
      "grocery": 5092,
      "universe": 5093,
      "university": 5094,
      "introduced": 5095,
      "honking": 5096,
      "babies": 5097,
      "emergency": 5098,
      "adults": 5099,
      "Louie": 5100,
      "paddle": 5101,
      "regret": 5102,
      "contain": 5103,
      "fisherman": 5104,
      "victory": 5105,
      "ignore": 5106,
      "ostrich": 5107,
      "reassur": 5108,
      "melted": 5109,
      "invitation": 5110,
      "Denise": 5111,
      "Dotty": 5112,
      "Ernie": 5113,
      "Ginger": 5114,
      "digging": 5115,
      "fabric": 5116,
      "oasis": 5117,
      "throat": 5118,
      "exhausted": 5119,
      "marshmallows": 5120,
      "Ano": 5121,
      "Bir": 5122,
      "Dav": 5123,
      "During": 5124,
      "Ell": 5125,
      "Gra": 5126,
      "Ho": 5127,
      "Han": 5128,
      "Isa": 5129,
      "Isn": 5130,
      "Jon": 5131,
      "Jana": 5132,
      "Lind": 5133,
      "Macy": 5134,
      "Pit": 5135,
      "Rain": 5136,
      "Rus": 5137,
      "Sweet": 5138,
      "Wel": 5139,
      "aven": 5140,
      "bi": 5141,
      "blo": 5142,
      "budge": 5143,
      "cot": 5144,
      "cli": 5145,
      "dare": 5146,
      "ele": 5147,
      "east": 5148,
      "fir": 5149,
      "file": 5150,
      "gle": 5151,
      "gare": 5152,
      "ib": 5153,
      "ker": 5154,
      "len": 5155,
      "lugg": 5156,
      "mice": 5157,
      "nif": 5158,
      "oh": 5159,
      "othy": 5160,
      "swo": 5161,
      "slice": 5162,
      "sides": 5163,
      "twent": 5164,
      "tum": 5165,
      "tweet": 5166,
      "uri": 5167,
      "vowed": 5168,
      "yield": 5169,
      "œNow": 5170,
      "œHi": 5171,
      "instruct": 5172,
      "innie": 5173,
      "toed": 5174,
      "toma": 5175,
      "ities": 5176,
      "ouble": 5177,
      "ths": 5178,
      "bead": 5179,
      "atched": 5180,
      "ppin": 5181,
      "plent": 5182,
      "plain": 5183,
      "asht": 5184,
      "forts": 5185,
      "forty": 5186,
      "bother": 5187,
      "rac": 5188,
      "shown": 5189,
      "somebody": 5190,
      "Timothy": 5191,
      "hoo": 5192,
      "icular": 5193,
      "helper": 5194,
      "stolen": 5195,
      "spice": 5196,
      "quack": 5197,
      "quiz": 5198,
      "brand": 5199,
      "teasing": 5200,
      "Everybody": 5201,
      "Mae": 5202,
      "warn": 5203,
      "Maxi": 5204,
      "Angie": 5205,
      "surface": 5206,
      "izard": 5207,
      "sorted": 5208,
      "control": 5209,
      "hurting": 5210,
      "tress": 5211,
      "voices": 5212,
      "shock": 5213,
      "potion": 5214,
      "rocked": 5215,
      "tallest": 5216,
      "storekeeper": 5217,
      "importance": 5218,
      "slimy": 5219,
      "snatched": 5220,
      "arrive": 5221,
      "flames": 5222,
      "sticky": 5223,
      "drifted": 5224,
      "printing": 5225,
      "hider": 5226,
      "writes": 5227,
      "landsca": 5228,
      "prov": 5229,
      "iggly": 5230,
      "pockets": 5231,
      "itchy": 5232,
      "elephants": 5233,
      "reaching": 5234,
      "interested": 5235,
      "chairs": 5236,
      "grandbaby": 5237,
      "grandchild": 5238,
      "brushes": 5239,
      "logs": 5240,
      "Margare": 5241,
      "hopeful": 5242,
      "throws": 5243,
      "fluttered": 5244,
      "source": 5245,
      "cheering": 5246,
      "particular": 5247,
      "panic": 5248,
      "Sophia": 5249,
      "gazed": 5250,
      "recording": 5251,
      "Start": 5252,
      "prayed": 5253,
      "Both": 5254,
      "soapy": 5255,
      "Carla": 5256,
      "Although": 5257,
      "cuddle": 5258,
      "recognize": 5259,
      "Liza": 5260,
      "style": 5261,
      "disturb": 5262,
      "Pippin": 5263,
      "ribbon": 5264,
      "ribbons": 5265,
      "applaud": 5266,
      "...": 5267,
      "melting": 5268,
      "slap": 5269,
      "squealed": 5270,
      "kneeled": 5271,
      "recommend": 5272,
      "argued": 5273,
      "costume": 5274,
      "Excited": 5275,
      "punished": 5276,
      "smarter": 5277,
      "crumbs": 5278,
      "paddled": 5279,
      "activities": 5280,
      "Nutty": 5281,
      "billboard": 5282,
      "omeday": 5283,
      "Days": 5284,
      "Tuesday": 5285,
      "crunch": 5286,
      "immering": 5287,
      "thirty": 5288,
      "navy": 5289,
      "situation": 5290,
      "Another": 5291,
      "David": 5292,
      "Ellie": 5293,
      "Graci": 5294,
      "Hannah": 5295,
      "Isabel": 5296,
      "Jonas": 5297,
      "Linda": 5298,
      "Russel": 5299,
      "Welcome": 5300,
      "luggage": 5301,
      "twenty": 5302,
      "instructions": 5303,
      "plenty": 5304,
      "ashtray": 5305,
      "landscape": 5306,
      "Margaret": 5307,
      ".'": 5308,
      "?'": 5309,
      "Ay": 5310,
      "Ash": 5311,
      "Bon": 5312,
      "Bru": 5313,
      "Bloom": 5314,
      "Con": 5315,
      "Clown": 5316,
      "Curi": 5317,
      "De": 5318,
      "Fire": 5319,
      "Gav": 5320,
      "Har": 5321,
      "Harry": 5322,
      "Li": 5323,
      "Mart": 5324,
      "Nancy": 5325,
      "Oli": 5326,
      "Pinky": 5327,
      "Ru": 5328,
      "Sy": 5329,
      "Taking": 5330,
      "Uh": 5331,
      "Winter": 5332,
      "Wiggly": 5333,
      "Yuck": 5334,
      "aer": 5335,
      "aut": 5336,
      "cod": 5337,
      "click": 5338,
      "echo": 5339,
      "grain": 5340,
      "joking": 5341,
      "lu": 5342,
      "lve": 5343,
      "lily": 5344,
      "mater": 5345,
      "osed": 5346,
      "oplane": 5347,
      "scient": 5348,
      "someday": 5349,
      "tantly": 5350,
      "vator": 5351,
      "œHey": 5352,
      "€,": 5353,
      "€˜": 5354,
      "heat": 5355,
      "inst": 5356,
      "instrum": 5357,
      "tong": 5358,
      "waits": 5359,
      "rewar": 5360,
      "restore": 5361,
      "refresh": 5362,
      "eral": 5363,
      "onions": 5364,
      "onward": 5365,
      "ari": 5366,
      "stitches": 5367,
      "losing": 5368,
      "neare": 5369,
      "beard": 5370,
      "season": 5371,
      "ripped": 5372,
      "ricane": 5373,
      "unlocked": 5374,
      "youn": 5375,
      "lied": 5376,
      "lies": 5377,
      "chop": 5378,
      "fet": 5379,
      "feast": 5380,
      "boot": 5381,
      "racco": 5382,
      "dolly": 5383,
      "pets": 5384,
      "peered": 5385,
      "faced": 5386,
      "kingdom": 5387,
      "uctantly": 5388,
      "usually": 5389,
      "dresses": 5390,
      "sunglasses": 5391,
      "Maisy": 5392,
      "anger": 5393,
      "willing": 5394,
      "express": 5395,
      "reads": 5396,
      "pered": 5397,
      "sorting": 5398,
      "brain": 5399,
      "bravery": 5400,
      "conv": 5401,
      "truly": 5402,
      "nodding": 5403,
      "hurricane": 5404,
      "wonders": 5405,
      "reply": 5406,
      "Nobody": 5407,
      "afterwards": 5408,
      "remembering": 5409,
      "greedy": 5410,
      "foods": 5411,
      "filling": 5412,
      "Emilda": 5413,
      "firefight": 5414,
      "pleasure": 5415,
      "reluctantly": 5416,
      "printer": 5417,
      "visiting": 5418,
      "purred": 5419,
      "mattress": 5420,
      "patience": 5421,
      "packing": 5422,
      "pennies": 5423,
      "proje": 5424,
      "points": 5425,
      "passing": 5426,
      "relief": 5427,
      "highest": 5428,
      "sailboat": 5429,
      "mination": 5430,
      "glitter": 5431,
      "signs": 5432,
      "wishing": 5433,
      "grapes": 5434,
      "grandparents": 5435,
      "brushed": 5436,
      "seeker": 5437,
      "determination": 5438,
      "matching": 5439,
      "accidents": 5440,
      "Chris": 5441,
      "policeman": 5442,
      "jewels": 5443,
      "edges": 5444,
      "supposed": 5445,
      "shadow": 5446,
      "pouring": 5447,
      "wisdom": 5448,
      "camping": 5449,
      "banged": 5450,
      "struggle": 5451,
      "seconds": 5452,
      "Cari": 5453,
      "palace": 5454,
      "Clumsy": 5455,
      "strip": 5456,
      "include": 5457,
      "stretching": 5458,
      "Roger": 5459,
      "cuddled": 5460,
      "separated": 5461,
      "delayed": 5462,
      "experien": 5463,
      "rising": 5464,
      "curly": 5465,
      "balanced": 5466,
      "cobweb": 5467,
      "slapped": 5468,
      "direct": 5469,
      "direction": 5470,
      "Jean": 5471,
      "Jeff": 5472,
      "confident": 5473,
      "Diana": 5474,
      "Quack": 5475,
      "Zoomy": 5476,
      "œDonâ": 5477,
      "rescued": 5478,
      "responded": 5479,
      "behavi": 5480,
      "Sadly": 5481,
      "pancakes": 5482,
      "Keep": 5483,
      "chuckled": 5484,
      "elevator": 5485,
      "firm": 5486,
      "Gracie": 5487,
      "Ayla": 5488,
      "Ashley": 5489,
      "Bongo": 5490,
      "Bruce": 5491,
      "Gavin": 5492,
      "Martin": 5493,
      "Oliver": 5494,
      "Ruby": 5495,
      "Sylve": 5496,
      "aeroplane": 5497,
      "materi": 5498,
      "scientist": 5499,
      "tongue": 5500,
      "rewarded": 5501,
      "refreshing": 5502,
      "raccoon": 5503,
      "firefighters": 5504,
      "Sylvester": 5505,
      "Ac": 5506,
      "Big": 5507,
      "Bumpy": 5508,
      "Cher": 5509,
      "Des": 5510,
      "For": 5511,
      "Great": 5512,
      "Gemma": 5513,
      "Jan": 5514,
      "Jet": 5515,
      "La": 5516,
      "Lizzy": 5517,
      "Matt": 5518,
      "Meri": 5519,
      "Nan": 5520,
      "Pu": 5521,
      "Pen": 5522,
      "Pap": 5523,
      "Sk": 5524,
      "Sal": 5525,
      "Squ": 5526,
      "Silly": 5527,
      "Tr": 5528,
      "Very": 5529,
      "Wo": 5530,
      "Zo": 5531,
      "Zigzag": 5532,
      "ago": 5533,
      "broom": 5534,
      "cas": 5535,
      "cent": 5536,
      "cough": 5537,
      "cash": 5538,
      "die": 5539,
      "died": 5540,
      "dies": 5541,
      "eight": 5542,
      "gran": 5543,
      "ito": 5544,
      "judge": 5545,
      "ks": 5546,
      "masks": 5547,
      "munk": 5548,
      "ptor": 5549,
      "pours": 5550,
      "ties": 5551,
      "wider": 5552,
      "œSure": 5553,
      "height": 5554,
      "anwhile": 5555,
      "wagging": 5556,
      "safer": 5557,
      "lling": 5558,
      "hers": 5559,
      "irpie": 5560,
      "beloved": 5561,
      "ceptor": 5562,
      "sew": 5563,
      "soaked": 5564,
      "amed": 5565,
      "amount": 5566,
      "ampered": 5567,
      "kes": 5568,
      "ady": 5569,
      "unsure": 5570,
      "upstairs": 5571,
      "otion": 5572,
      "playtime": 5573,
      "momâ": 5574,
      "goals": 5575,
      "oky": 5576,
      "ropes": 5577,
      "doves": 5578,
      "girlâ": 5579,
      "idey": 5580,
      "notes": 5581,
      "lped": 5582,
      "cope": 5583,
      "ica": 5584,
      "opin": 5585,
      "oper": 5586,
      "grily": 5587,
      "lower": 5588,
      "rule": 5589,
      "rusty": 5590,
      "goodnight": 5591,
      "teles": 5592,
      "hugging": 5593,
      "Jackie": 5594,
      "acted": 5595,
      "posit": 5596,
      "antic": 5597,
      "ively": 5598,
      "Maple": 5599,
      "Mazzy": 5600,
      "angled": 5601,
      "puff": 5602,
      "pushes": 5603,
      "Thatâ": 5604,
      "shined": 5605,
      "shall": 5606,
      "final": 5607,
      "conne": 5608,
      "underground": 5609,
      "stem": 5610,
      "stew": 5611,
      "steel": 5612,
      "disagree": 5613,
      "shoulders": 5614,
      "pots": 5615,
      "coloring": 5616,
      "talent": 5617,
      "grabbing": 5618,
      "warmly": 5619,
      "delivery": 5620,
      "tures": 5621,
      "magician": 5622,
      "bows": 5623,
      "mermaid": 5624,
      "firemen": 5625,
      "Does": 5626,
      "twin": 5627,
      "twis": 5628,
      "sandcastles": 5629,
      "arriage": 5630,
      "flood": 5631,
      "sation": 5632,
      "planning": 5633,
      "colder": 5634,
      "Jenna": 5635,
      "Jennif": 5636,
      "gonna": 5637,
      "ments": 5638,
      "touching": 5639,
      "lared": 5640,
      "musician": 5641,
      "Bea": 5642,
      "prove": 5643,
      "secure": 5644,
      "boards": 5645,
      "tails": 5646,
      "dragonfly": 5647,
      "Without": 5648,
      "mineral": 5649,
      "glimmering": 5650,
      "healed": 5651,
      "ourselves": 5652,
      "solving": 5653,
      "scurry": 5654,
      "scampered": 5655,
      "steady": 5656,
      "imagining": 5657,
      "scoop": 5658,
      "actions": 5659,
      "spooky": 5660,
      "students": 5661,
      "occas": 5662,
      "organizing": 5663,
      "shrinking": 5664,
      "wraps": 5665,
      "stirs": 5666,
      "Chirpie": 5667,
      "planting": 5668,
      "Leave": 5669,
      "Meanwhile": 5670,
      "tickle": 5671,
      "gems": 5672,
      "decorated": 5673,
      "paintings": 5674,
      "complained": 5675,
      "sneezing": 5676,
      "œWhatâ": 5677,
      "videos": 5678,
      "spraying": 5679,
      "scales": 5680,
      "Bluey": 5681,
      "leaning": 5682,
      "bridges": 5683,
      "stripes": 5684,
      "jailer": 5685,
      "pastels": 5686,
      "tiptoed": 5687,
      "rushing": 5688,
      "Spidey": 5689,
      "efforts": 5690,
      "encouraging": 5691,
      "increased": 5692,
      "Jessica": 5693,
      "twinkle": 5694,
      "twinkling": 5695,
      "Poor": 5696,
      "Poppy": 5697,
      "spikes": 5698,
      "twisting": 5699,
      "introduce": 5700,
      "recommended": 5701,
      "chipmunk": 5702,
      "rumble": 5703,
      "arguing": 5704,
      "costumes": 5705,
      "sprinkles": 5706,
      "accomplishment": 5707,
      "prunes": 5708,
      "planets": 5709,
      "Katie": 5710,
      "Speedy": 5711,
      "wedding": 5712,
      "yesterday": 5713,
      "strongest": 5714,
      "pupils": 5715,
      "Adam": 5716,
      "Pudding": 5717,
      "cousin": 5718,
      "fashion": 5719,
      "glee": 5720,
      "tomato": 5721,
      "beads": 5722,
      "Harper": 5723,
      "experienced": 5724,
      "Acceptor": 5725,
      "Despite": 5726,
      "Janie": 5727,
      "Penny": 5728,
      "Squirrel": 5729,
      "Trouble": 5730,
      "telescope": 5731,
      "Jennifer": 5732,
      "!'.": 5733,
      "--": 5734,
      "AA": 5735,
      "Along": 5736,
      "Aunt": 5737,
      "Bro": 5738,
      "Biggy": 5739,
      "Col": 5740,
      "Count": 5741,
      "Dep": 5742,
      "En": 5743,
      "Eric": 5744,
      "Gina": 5745,
      "Gabby": 5746,
      "Kin": 5747,
      "Kait": 5748,
      "Karen": 5749,
      "Kari": 5750,
      "Lively": 5751,
      "Man": 5752,
      "Mat": 5753,
      "Mouse": 5754,
      "Many": 5755,
      "Na": 5756,
      "Per": 5757,
      "Pinch": 5758,
      "Rich": 5759,
      "Rhythm": 5760,
      "Ricky": 5761,
      "Sabin": 5762,
      "Super": 5763,
      "Two": 5764,
      "Wat": 5765,
      "afar": 5766,
      "aster": 5767,
      "bun": 5768,
      "bound": 5769,
      "flight": 5770,
      "fond": 5771,
      "freed": 5772,
      "gloves": 5773,
      "hh": 5774,
      "ibb": 5775,
      "junk": 5776,
      "kins": 5777,
      "mitten": 5778,
      "marriage": 5779,
      "osh": 5780,
      "poking": 5781,
      "riddle": 5782,
      "sen": 5783,
      "scra": 5784,
      "snail": 5785,
      "tim": 5786,
      "tex": 5787,
      "vast": 5788,
      "wid": 5789,
      "wow": 5790,
      "wink": 5791,
      "xie": 5792,
      "œSee": 5793,
      "heaven": 5794,
      "anno": 5795,
      "waff": 5796,
      "itude": 5797,
      "omas": 5798,
      "idence": 5799,
      "lets": 5800,
      "stare": 5801,
      "orful": 5802,
      "threat": 5803,
      "veral": 5804,
      "behaving": 5805,
      "several": 5806,
      "ampol": 5807,
      "ado": 5808,
      "rip": 5809,
      "assm": 5810,
      "thatâ": 5811,
      "west": 5812,
      "chief": 5813,
      "lyn": 5814,
      "fuzzy": 5815,
      "girls": 5816,
      "peck": 5817,
      "pebbles": 5818,
      "mosqu": 5819,
      "members": 5820,
      "cost": 5821,
      "coats": 5822,
      "icia": 5823,
      "ranger": 5824,
      "backwards": 5825,
      "loop": 5826,
      "mane": 5827,
      "stole": 5828,
      "worms": 5829,
      "fact": 5830,
      "fault": 5831,
      "growl": 5832,
      "caused": 5833,
      "uding": 5834,
      "whatever": 5835,
      "byes": 5836,
      "quilt": 5837,
      "decides": 5838,
      "declared": 5839,
      "Jog": 5840,
      "scaring": 5841,
      "bully": 5842,
      "goodbyes": 5843,
      "wool": 5844,
      "teas": 5845,
      "teased": 5846,
      "Jackâ": 5847,
      "acle": 5848,
      "treehouse": 5849,
      "popper": 5850,
      "mailed": 5851,
      "Johnâ": 5852,
      "Leticia": 5853,
      "Maia": 5854,
      "pause": 5855,
      "papa": 5856,
      "tage": 5857,
      "waters": 5858,
      "watering": 5859,
      "flowing": 5860,
      "chef": 5861,
      "beds": 5862,
      "conver": 5863,
      "confu": 5864,
      "staying": 5865,
      "bravest": 5866,
      "faraway": 5867,
      "least": 5868,
      "leaking": 5869,
      "windy": 5870,
      "ortun": 5871,
      "doorway": 5872,
      "Noah": 5873,
      "artist": 5874,
      "Thomas": 5875,
      "squish": 5876,
      "rocking": 5877,
      "ips": 5878,
      "curiously": 5879,
      "heading": 5880,
      "waiter": 5881,
      "listens": 5882,
      "froze": 5883,
      "breaking": 5884,
      "Therese": 5885,
      "paring": 5886,
      "trampol": 5887,
      "darker": 5888,
      "tractor": 5889,
      "drift": 5890,
      "marked": 5891,
      "exploration": 5892,
      "pedals": 5893,
      "beehive": 5894,
      "pretends": 5895,
      "Being": 5896,
      "paintbrush": 5897,
      "growling": 5898,
      "doctors": 5899,
      "Petey": 5900,
      "paths": 5901,
      "action": 5902,
      "streets": 5903,
      "Marlon": 5904,
      "Marvin": 5905,
      "burrow": 5906,
      "spoonful": 5907,
      "preparing": 5908,
      "diving": 5909,
      "inviting": 5910,
      "blows": 5911,
      "Ready": 5912,
      "sweep": 5913,
      "collection": 5914,
      "recorded": 5915,
      "Melody": 5916,
      "tickled": 5917,
      "politely": 5918,
      "twirling": 5919,
      "pirates": 5920,
      "cracker": 5921,
      "Willow": 5922,
      "Willie": 5923,
      "flapping": 5924,
      "marker": 5925,
      "squeezing": 5926,
      "Frankie": 5927,
      "prayer": 5928,
      "seems": 5929,
      "tires": 5930,
      "cubes": 5931,
      "licks": 5932,
      "polishing": 5933,
      "Beartie": 5934,
      "Patty": 5935,
      "including": 5936,
      "basement": 5937,
      "Juliet": 5938,
      "fantastic": 5939,
      "bandages": 5940,
      "screwdriver": 5941,
      "scratches": 5942,
      "shivering": 5943,
      "appreciated": 5944,
      "Piper": 5945,
      "Pixie": 5946,
      "admiration": 5947,
      "Jessi": 5948,
      "Jessie": 5949,
      "dusty": 5950,
      "traveled": 5951,
      "travelling": 5952,
      "squeak": 5953,
      "chips": 5954,
      "cheeks": 5955,
      "Elin": 5956,
      "Elle": 5957,
      "emerged": 5958,
      "obeyed": 5959,
      "Mona": 5960,
      "confidence": 5961,
      "Katy": 5962,
      "results": 5963,
      "lungs": 5964,
      "satisfied": 5965,
      "Clarice": 5966,
      "Sharon": 5967,
      "Yeah": 5968,
      "stomped": 5969,
      "acorns": 5970,
      "guessed": 5971,
      "insisting": 5972,
      "explorers": 5973,
      "sternly": 5974,
      "reassured": 5975,
      "Birthday": 5976,
      "Hope": 5977,
      "cottage": 5978,
      "cliff": 5979,
      "swooped": 5980,
      "spices": 5981,
      "crunchy": 5982,
      "Curious": 5983,
      "Libby": 5984,
      "code": 5985,
      "echoed": 5986,
      "lux": 5987,
      "instruments": 5988,
      "convince": 5989,
      "project": 5990,
      "directions": 5991,
      "Quackers": 5992,
      "Cherie": 5993,
      "connected": 5994,
      "scurrying": 5995,
      "occasion": 5996,
      "Brother": 5997,
      "Colorful": 5998,
      "Dependable": 5999,
      "Kaitlyn": 6000,
      "Sabina": 6001,
      "Watch": 6002,
      "annoy": 6003,
      "waffles": 6004,
      "mosquito": 6005,
      "trampoline": 6006,
      "Am": 6007,
      "Ana": 6008,
      "Abi": 6009,
      "Back": 6010,
      "Bugg": 6011,
      "Buddy": 6012,
      "Cow": 6013,
      "Chad": 6014,
      "Ellen": 6015,
      "Far": 6016,
      "Fid": 6017,
      "Honey": 6018,
      "Jam": 6019,
      "Jas": 6020,
      "Lee": 6021,
      "Lacy": 6022,
      "Mu": 6023,
      "Mick": 6024,
      "Minnie": 6025,
      "Olly": 6026,
      "Pancake": 6027,
      "Rod": 6028,
      "Rile": 6029,
      "Ribb": 6030,
      "Sa": 6031,
      "Span": 6032,
      "Seth": 6033,
      "Time": 6034,
      "Those": 6035,
      "Vel": 6036,
      "Vroom": 6037,
      "aughter": 6038,
      "awake": 6039,
      "astron": 6040,
      "bits": 6041,
      "bond": 6042,
      "bunch": 6043,
      "brick": 6044,
      "cert": 6045,
      "clicked": 6046,
      "dipped": 6047,
      "dots": 6048,
      "een": 6049,
      "ease": 6050,
      "fare": 6051,
      "fts": 6052,
      "faded": 6053,
      "gall": 6054,
      "gree": 6055,
      "lers": 6056,
      "mist": 6057,
      "mies": 6058,
      "motion": 6059,
      "nine": 6060,
      "ola": 6061,
      "prank": 6062,
      "piggy": 6063,
      "sank": 6064,
      "tles": 6065,
      "tangled": 6066,
      "ura": 6067,
      "vies": 6068,
      "wizard": 6069,
      "xi": 6070,
      "yum": 6071,
      "œBut": 6072,
      "œMaybe": 6073,
      "œWhere": 6074,
      "œWell": 6075,
      "tock": 6076,
      "ref": 6077,
      "repa": 6078,
      "remove": 6079,
      "removed": 6080,
      "ouch": 6081,
      "ene": 6082,
      "onge": 6083,
      "iment": 6084,
      "ility": 6085,
      "neither": 6086,
      "sequ": 6087,
      "seven": 6088,
      "igator": 6089,
      "hissed": 6090,
      "alligator": 6091,
      "unic": 6092,
      "webs": 6093,
      "chill": 6094,
      "ittered": 6095,
      "ford": 6096,
      "forgetting": 6097,
      "fever": 6098,
      "ender": 6099,
      "bolt": 6100,
      "gobbled": 6101,
      "racer": 6102,
      "robe": 6103,
      "ters": 6104,
      "peel": 6105,
      "pecked": 6106,
      "defe": 6107,
      "defin": 6108,
      "devast": 6109,
      "movies": 6110,
      "newfound": 6111,
      "stored": 6112,
      "lav": 6113,
      "owners": 6114,
      "faction": 6115,
      "sponge": 6116,
      "Youth": 6117,
      "quake": 6118,
      "Josie": 6119,
      "Jokes": 6120,
      "everybody": 6121,
      "kings": 6122,
      "iles": 6123,
      "ruler": 6124,
      "ruining": 6125,
      "teen": 6126,
      "harvest": 6127,
      "itely": 6128,
      "pose": 6129,
      "math": 6130,
      "types": 6131,
      "venture": 6132,
      "clues": 6133,
      "obser": 6134,
      "taxi": 6135,
      "compared": 6136,
      "handy": 6137,
      "beaver": 6138,
      "ption": 6139,
      "joyfully": 6140,
      "conqu": 6141,
      "consequ": 6142,
      "stays": 6143,
      "culp": 6144,
      "rainy": 6145,
      "rained": 6146,
      "keeps": 6147,
      "worker": 6148,
      "thrown": 6149,
      "replaced": 6150,
      "Nothing": 6151,
      "lighter": 6152,
      "dragged": 6153,
      "chopping": 6154,
      "chases": 6155,
      "charac": 6156,
      "months": 6157,
      "Love": 6158,
      "couple": 6159,
      "medal": 6160,
      "medals": 6161,
      "grassy": 6162,
      "fires": 6163,
      "frosting": 6164,
      "pleaded": 6165,
      "twice": 6166,
      "creams": 6167,
      "trading": 6168,
      "flake": 6169,
      "bars": 6170,
      "mothers": 6171,
      "sweeties": 6172,
      "dripping": 6173,
      "resisted": 6174,
      "hearing": 6175,
      "creativ": 6176,
      "queens": 6177,
      "bottles": 6178,
      "trips": 6179,
      "matched": 6180,
      "believing": 6181,
      "turnip": 6182,
      "probab": 6183,
      "joining": 6184,
      "cupine": 6185,
      "ences": 6186,
      "buckets": 6187,
      "snowflake": 6188,
      "afford": 6189,
      "calmed": 6190,
      "practised": 6191,
      "scent": 6192,
      "scrubbing": 6193,
      "Paola": 6194,
      "screams": 6195,
      "screaming": 6196,
      "active": 6197,
      "winning": 6198,
      "rainbows": 6199,
      "mouths": 6200,
      "Marc": 6201,
      "Margo": 6202,
      "attack": 6203,
      "rolls": 6204,
      "Goodnight": 6205,
      "driveway": 6206,
      "clearly": 6207,
      "escaping": 6208,
      "storms": 6209,
      "bullies": 6210,
      "recorder": 6211,
      "leading": 6212,
      "nervously": 6213,
      "Meow": 6214,
      "Marky": 6215,
      "copy": 6216,
      "supplies": 6217,
      "frowning": 6218,
      "lifting": 6219,
      "flap": 6220,
      "prick": 6221,
      "dinosaurs": 6222,
      "markers": 6223,
      "feeding": 6224,
      "zookeeper": 6225,
      "suggestion": 6226,
      "wandering": 6227,
      "belts": 6228,
      "Bobbie": 6229,
      "Toni": 6230,
      "blooming": 6231,
      "symbols": 6232,
      "computers": 6233,
      "trembled": 6234,
      "pencils": 6235,
      "horns": 6236,
      "earthquake": 6237,
      "vanish": 6238,
      "reversed": 6239,
      "Missy": 6240,
      "avoid": 6241,
      "delivered": 6242,
      "buzzed": 6243,
      "complaining": 6244,
      "shivered": 6245,
      "performed": 6246,
      "performing": 6247,
      "crashing": 6248,
      "hesitant": 6249,
      "beyond": 6250,
      "Robin": 6251,
      "dared": 6252,
      "darling": 6253,
      "tornado": 6254,
      "travelled": 6255,
      "weeping": 6256,
      "Kimmy": 6257,
      "guest": 6258,
      "honk": 6259,
      "interrup": 6260,
      "Sunday": 6261,
      "accomplished": 6262,
      "pedaling": 6263,
      "Excuse": 6264,
      "Dippy": 6265,
      "Shauna": 6266,
      "wiggled": 6267,
      "silently": 6268,
      "Copper": 6269,
      "Speed": 6270,
      "choosing": 6271,
      "flavors": 6272,
      "satisfaction": 6273,
      "Caroline": 6274,
      "NeeNee": 6275,
      "Simone": 6276,
      "Tyler": 6277,
      "Jacob": 6278,
      "target": 6279,
      "toddler": 6280,
      "stroked": 6281,
      "rustling": 6282,
      "responsib": 6283,
      "Sweety": 6284,
      "blood": 6285,
      "provided": 6286,
      "Startled": 6287,
      "Excitedly": 6288,
      "Connie": 6289,
      "younger": 6290,
      "expression": 6291,
      "Laura": 6292,
      "Puppy": 6293,
      "Woof": 6294,
      "Zoey": 6295,
      "cashier": 6296,
      "Counting": 6297,
      "Enjoy": 6298,
      "Nathan": 6299,
      "Pinchy": 6300,
      "freedom": 6301,
      "widened": 6302,
      "teaspo": 6303,
      "squeaky": 6304,
      "luxu": 6305,
      "Amanda": 6306,
      "Buggy": 6307,
      "Fido": 6308,
      "Jamie": 6309,
      "Jasmine": 6310,
      "Mickey": 6311,
      "Riley": 6312,
      "Ribbit": 6313,
      "Spanish": 6314,
      "Velvet": 6315,
      "astronaut": 6316,
      "farewell": 6317,
      "greeted": 6318,
      "repaired": 6319,
      "definitely": 6320,
      "devastated": 6321,
      "creativity": 6322,
      "probably": 6323,
      "10": 6324,
      "Alf": 6325,
      "Bri": 6326,
      "Daughter": 6327,
      "Eag": 6328,
      "Eating": 6329,
      "Fe": 6330,
      "Fine": 6331,
      "Father": 6332,
      "Gig": 6333,
      "Garry": 6334,
      "Jay": 6335,
      "Jason": 6336,
      "Lina": 6337,
      "Mo": 6338,
      "Mid": 6339,
      "Mel": 6340,
      "Micky": 6341,
      "Nice": 6342,
      "Over": 6343,
      "Play": 6344,
      "Right": 6345,
      "Sir": 6346,
      "Sur": 6347,
      "Sant": 6348,
      "Snail": 6349,
      "Tara": 6350,
      "Tell": 6351,
      "Wed": 6352,
      "Water": 6353,
      "ais": 6354,
      "aim": 6355,
      "ashes": 6356,
      "bud": 6357,
      "cour": 6358,
      "det": 6359,
      "flea": 6360,
      "groom": 6361,
      "gorge": 6362,
      "hour": 6363,
      "lou": 6364,
      "lent": 6365,
      "lined": 6366,
      "mow": 6367,
      "mered": 6368,
      "munch": 6369,
      "miles": 6370,
      "ni": 6371,
      "opp": 6372,
      "pand": 6373,
      "pon": 6374,
      "pis": 6375,
      "pts": 6376,
      "pies": 6377,
      "pouted": 6378,
      "pitc": 6379,
      "rad": 6380,
      "sse": 6381,
      "sday": 6382,
      "sno": 6383,
      "site": 6384,
      "sculp": 6385,
      "till": 6386,
      "tier": 6387,
      "zes": 6388,
      "œThe": 6389,
      "œCome": 6390,
      "œHow": 6391,
      "œGood": 6392,
      "œWho": 6393,
      "anas": 6394,
      "tol": 6395,
      "toward": 6396,
      "ware": 6397,
      "waking": 6398,
      "refu": 6399,
      "reason": 6400,
      "reunited": 6401,
      "itched": 6402,
      "eriment": 6403,
      "wasted": 6404,
      "arran": 6405,
      "iss": 6406,
      "issa": 6407,
      "local": 6408,
      "irts": 6409,
      "vers": 6410,
      "necess": 6411,
      "nesday": 6412,
      "belly": 6413,
      "seas": 6414,
      "sets": 6415,
      "atur": 6416,
      "attem": 6417,
      "atitude": 6418,
      "ige": 6419,
      "igning": 6420,
      "among": 6421,
      "plucked": 6422,
      "adjust": 6423,
      "unfamiliar": 6424,
      "alley": 6425,
      "aside": 6426,
      "wept": 6427,
      "wetter": 6428,
      "liar": 6429,
      "players": 6430,
      "smer": 6431,
      "rail": 6432,
      "raind": 6433,
      "rops": 6434,
      "roast": 6435,
      "ugs": 6436,
      "expe": 6437,
      "pecu": 6438,
      "deal": 6439,
      "mesmer": 6440,
      "cooper": 6441,
      "icle": 6442,
      "theirs": 6443,
      "lap": 6444,
      "oping": 6445,
      "facing": 6446,
      "gratitude": 6447,
      "cape": 6448,
      "eling": 6449,
      "spy": 6450,
      "cia": 6451,
      "cipal": 6452,
      "Youâ": 6453,
      "parking": 6454,
      "whoosh": 6455,
      "joked": 6456,
      "speople": 6457,
      "Sol": 6458,
      "ruin": 6459,
      "woof": 6460,
      "wobble": 6461,
      "bbed": 6462,
      "whipped": 6463,
      "nasty": 6464,
      "posse": 6465,
      "doggie": 6466,
      "maker": 6467,
      "blink": 6468,
      "blender": 6469,
      "comets": 6470,
      "Mabel": 6471,
      "clut": 6472,
      "clue": 6473,
      "combed": 6474,
      "handsome": 6475,
      "handful": 6476,
      "Anny": 6477,
      "watches": 6478,
      "expert": 6479,
      "experiment": 6480,
      "flown": 6481,
      "needles": 6482,
      "shaped": 6483,
      "Andrew": 6484,
      "exploded": 6485,
      "prettier": 6486,
      "fins": 6487,
      "donkey": 6488,
      "smiley": 6489,
      "tingle": 6490,
      "farther": 6491,
      "lettu": 6492,
      "workman": 6493,
      "steep": 6494,
      "stepping": 6495,
      "winding": 6496,
      "brightest": 6497,
      "nights": 6498,
      "shoo": 6499,
      "nearly": 6500,
      "squin": 6501,
      "ipation": 6502,
      "greet": 6503,
      "badge": 6504,
      "talented": 6505,
      "llowed": 6506,
      "syrup": 6507,
      "ffled": 6508,
      "singer": 6509,
      "differently": 6510,
      "Donâ": 6511,
      "firefly": 6512,
      "fireflies": 6513,
      "baked": 6514,
      "parted": 6515,
      "sandpit": 6516,
      "sticking": 6517,
      "sweetest": 6518,
      "drip": 6519,
      "crashed": 6520,
      "spots": 6521,
      "plans": 6522,
      "principal": 6523,
      "swims": 6524,
      "pedaled": 6525,
      "wears": 6526,
      "blocked": 6527,
      "blocking": 6528,
      "covering": 6529,
      "buyer": 6530,
      "buying": 6531,
      "Behind": 6532,
      "smelling": 6533,
      "patted": 6534,
      "jobs": 6535,
      "passeng": 6536,
      "dangers": 6537,
      "kayaking": 6538,
      "Peggy": 6539,
      "bathrobe": 6540,
      "drying": 6541,
      "sails": 6542,
      "townspeople": 6543,
      "gentleman": 6544,
      "seashells": 6545,
      "mint": 6546,
      "designed": 6547,
      "despite": 6548,
      "mixing": 6549,
      "ounced": 6550,
      "glittered": 6551,
      "sisters": 6552,
      "naughtiness": 6553,
      "healing": 6554,
      "knobs": 6555,
      "returning": 6556,
      "mysteries": 6557,
      "preschool": 6558,
      "presented": 6559,
      "peacefully": 6560,
      "bowls": 6561,
      "ugging": 6562,
      "Marty": 6563,
      "tested": 6564,
      "reminds": 6565,
      "invol": 6566,
      "brushing": 6567,
      "ignoring": 6568,
      "Grandmother": 6569,
      "calmly": 6570,
      "crossing": 6571,
      "parties": 6572,
      "admit": 6573,
      "incts": 6574,
      "measurements": 6575,
      "cactuses": 6576,
      "manager": 6577,
      "Meg": 6578,
      "terrified": 6579,
      "tickling": 6580,
      "Seeing": 6581,
      "stuffing": 6582,
      "roads": 6583,
      "streamers": 6584,
      "protecting": 6585,
      "pinched": 6586,
      "loading": 6587,
      "Bubbles": 6588,
      "wakes": 6589,
      "skips": 6590,
      "discoveries": 6591,
      "Stay": 6592,
      "Brad": 6593,
      "bananas": 6594,
      "paying": 6595,
      "repeated": 6596,
      "repeating": 6597,
      "hamster": 6598,
      "Carl": 6599,
      "leaks": 6600,
      "jackets": 6601,
      "Steven": 6602,
      "million": 6603,
      "mushrooms": 6604,
      "struction": 6605,
      "threads": 6606,
      "vehicles": 6607,
      "stealing": 6608,
      "Alvin": 6609,
      "licking": 6610,
      "shouldnâ": 6611,
      "springing": 6612,
      "Maddyâ": 6613,
      "bumps": 6614,
      "reception": 6615,
      "designs": 6616,
      "oatmeal": 6617,
      "porcupine": 6618,
      "tips": 6619,
      "reversing": 6620,
      "risks": 6621,
      "surroundings": 6622,
      "delivering": 6623,
      "explaining": 6624,
      "scratched": 6625,
      "stamps": 6626,
      "longest": 6627,
      "appreciation": 6628,
      "Owl": 6629,
      "daring": 6630,
      "warnings": 6631,
      "neatly": 6632,
      "cobwebs": 6633,
      "breathed": 6634,
      "decisions": 6635,
      "potatoes": 6636,
      "Elsie": 6637,
      "pitchfork": 6638,
      "zero": 6639,
      "sneaky": 6640,
      "weights": 6641,
      "masterpiece": 6642,
      "sprinkled": 6643,
      "photos": 6644,
      "Moni": 6645,
      "Quick": 6646,
      "Shaun": 6647,
      "wiggle": 6648,
      "Frog": 6649,
      "Froggy": 6650,
      "swaying": 6651,
      "yelped": 6652,
      "response": 6653,
      "Alicia": 6654,
      "Clarissa": 6655,
      "Simon": 6656,
      "Sharing": 6657,
      "Jaqui": 6658,
      "Outside": 6659,
      "salty": 6660,
      "Joseph": 6661,
      "responsible": 6662,
      "instincts": 6663,
      "nearest": 6664,
      "behavior": 6665,
      "firmly": 6666,
      "materials": 6667,
      "Skip": 6668,
      "positive": 6669,
      "anticipation": 6670,
      "twisty": 6671,
      "Auntie": 6672,
      "Richie": 6673,
      "bunnies": 6674,
      "textures": 6675,
      "chefs": 6676,
      "conversation": 6677,
      "annoyed": 6678,
      "Farmer": 6679,
      "reflect": 6680,
      "lava": 6681,
      "conquered": 6682,
      "consequences": 6683,
      "snowflakes": 6684,
      "prickly": 6685,
      "luxury": 6686,
      "Alfie": 6687,
      "Brian": 6688,
      "Eager": 6689,
      "Feeling": 6690,
      "Gigi": 6691,
      "Midnight": 6692,
      "Santa": 6693,
      "Wednesday": 6694,
      "detail": 6695,
      "gorgeous": 6696,
      "loudest": 6697,
      "pandas": 6698,
      "pistol": 6699,
      "pitcher": 6700,
      "attempts": 6701,
      "raindrops": 6702,
      "expect": 6703,
      "peculiar": 6704,
      "possess": 6705,
      "lettuce": 6706,
      "passengers": 6707,
      "'?\"": 6708,
      "?!\"": 6709,
      "Ame": 6710,
      "Any": 6711,
      "Bad": 6712,
      "Bark": 6713,
      "Bizzy": 6714,
      "CD": 6715,
      "Cy": 6716,
      "Cars": 6717,
      "Dory": 6718,
      "Fig": 6719,
      "Fun": 6720,
      "Fortun": 6721,
      "Ha": 6722,
      "Hallow": 6723,
      "Halley": 6724,
      "Hugs": 6725,
      "Imag": 6726,
      "Jump": 6727,
      "Jemma": 6728,
      "Ken": 6729,
      "Mother": 6730,
      "Mine": 6731,
      "Nor": 6732,
      "Our": 6733,
      "Pick": 6734,
      "Run": 6735,
      "Rust": 6736,
      "Randy": 6737,
      "Say": 6738,
      "Try": 6739,
      "Und": 6740,
      "Volcano": 6741,
      "Wil": 6742,
      "Wally": 6743,
      "Winnie": 6744,
      "Wizard": 6745,
      "aud": 6746,
      "bak": 6747,
      "bats": 6748,
      "center": 6749,
      "dled": 6750,
      "dles": 6751,
      "ev": 6752,
      "ely": 6753,
      "eca": 6754,
      "fade": 6755,
      "fif": 6756,
      "ftest": 6757,
      "gar": 6758,
      "hus": 6759,
      "hits": 6760,
      "hins": 6761,
      "hitting": 6762,
      "hips": 6763,
      "ias": 6764,
      "itor": 6765,
      "jugg": 6766,
      "ky": 6767,
      "lish": 6768,
      "lending": 6769,
      "mur": 6770,
      "nth": 6771,
      "oster": 6772,
      "py": 6773,
      "plo": 6774,
      "pod": 6775,
      "piled": 6776,
      "rings": 6777,
      "sou": 6778,
      "shave": 6779,
      "sion": 6780,
      "sits": 6781,
      "scor": 6782,
      "tv": 6783,
      "tuck": 6784,
      "tment": 6785,
      "tipped": 6786,
      "vive": 6787,
      "œA": 6788,
      "œHe": 6789,
      "œWhen": 6790,
      "œThere": 6791,
      "œWow": 6792,
      "œOf": 6793,
      "œAre": 6794,
      "hew": 6795,
      "angrily": 6796,
      "theat": 6797,
      "wax": 6798,
      "rees": 6799,
      "rejo": 6800,
      "refr": 6801,
      "ouched": 6802,
      "ering": 6803,
      "erted": 6804,
      "haven": 6805,
      "encourage": 6806,
      "oni": 6807,
      "ists": 6808,
      "sale": 6809,
      "stam": 6810,
      "stall": 6811,
      "stals": 6812,
      "stantly": 6813,
      "orter": 6814,
      "ilder": 6815,
      "thud": 6816,
      "herbs": 6817,
      "beating": 6818,
      "begun": 6819,
      "cel": 6820,
      "sobbed": 6821,
      "softest": 6822,
      "igera": 6823,
      "ambled": 6824,
      "vegg": 6825,
      "ades": 6826,
      "address": 6827,
      "unable": 6828,
      "unkind": 6829,
      "unripe": 6830,
      "otted": 6831,
      "aston": 6832,
      "weâ": 6833,
      "lia": 6834,
      "lifts": 6835,
      "ching": 6836,
      "chie": 6837,
      "chilly": 6838,
      "force": 6839,
      "playroom": 6840,
      "ends": 6841,
      "bog": 6842,
      "smashed": 6843,
      "outing": 6844,
      "wanna": 6845,
      "oks": 6846,
      "shorter": 6847,
      "root": 6848,
      "robb": 6849,
      "rooster": 6850,
      "dod": 6851,
      "sawing": 6852,
      "excell": 6853,
      "peep": 6854,
      "hog": 6855,
      "etah": 6856,
      "carries": 6857,
      "umbled": 6858,
      "moo": 6859,
      "abra": 6860,
      "melo": 6861,
      "melody": 6862,
      "cosy": 6863,
      "foal": 6864,
      "focus": 6865,
      "iciest": 6866,
      "icicle": 6867,
      "aint": 6868,
      "loose": 6869,
      "label": 6870,
      "owns": 6871,
      "ongrat": 6872,
      "cases": 6873,
      "causing": 6874,
      "spits": 6875,
      "sprang": 6876,
      "otherwise": 6877,
      "getic": 6878,
      "quie": 6879,
      "Jojo": 6880,
      "whoever": 6881,
      "bras": 6882,
      "bride": 6883,
      "buses": 6884,
      "builder": 6885,
      "wobb": 6886,
      "wobbled": 6887,
      "whirl": 6888,
      "whizz": 6889,
      "acting": 6890,
      "item": 6891,
      "clover": 6892,
      "dads": 6893,
      "polar": 6894,
      "poses": 6895,
      "catches": 6896,
      "yourselves": 6897,
      "blues": 6898,
      "tying": 6899,
      "sunscreen": 6900,
      "overcome": 6901,
      "overhead": 6902,
      "clucked": 6903,
      "calls": 6904,
      "observed": 6905,
      "taped": 6906,
      "tapping": 6907,
      "untied": 6908,
      "compan": 6909,
      "handker": 6910,
      "Whatâ": 6911,
      "cheetah": 6912,
      "gardens": 6913,
      "survive": 6914,
      "shallow": 6915,
      "eats": 6916,
      "reds": 6917,
      "braver": 6918,
      "Bobâ": 6919,
      "surprising": 6920,
      "cond": 6921,
      "concent": 6922,
      "construction": 6923,
      "underwater": 6924,
      "rains": 6925,
      "raincoat": 6926,
      "ankle": 6927,
      "brightened": 6928,
      "squaw": 6929,
      "cleaner": 6930,
      "crystals": 6931,
      "bookmark": 6932,
      "headache": 6933,
      "chopped": 6934,
      "yells": 6935,
      "locks": 6936,
      "counts": 6937,
      "bowing": 6938,
      "Toto": 6939,
      "Donna": 6940,
      "bage": 6941,
      "born": 6942,
      "Dog": 6943,
      "tables": 6944,
      "tablecloth": 6945,
      "gladly": 6946,
      "traded": 6947,
      "trotted": 6948,
      "flat": 6949,
      "guy": 6950,
      "guide": 6951,
      "guys": 6952,
      "mischie": 6953,
      "flopped": 6954,
      "marve": 6955,
      "cracked": 6956,
      "dreammaker": 6957,
      "cord": 6958,
      "claps": 6959,
      "zebras": 6960,
      "visits": 6961,
      "visitor": 6962,
      "fairies": 6963,
      "drawn": 6964,
      "climbs": 6965,
      "wrist": 6966,
      "understands": 6967,
      "splashes": 6968,
      "belief": 6969,
      "vessel": 6970,
      "owls": 6971,
      "susp": 6972,
      "floors": 6973,
      "heavier": 6974,
      "talks": 6975,
      "hideout": 6976,
      "dragons": 6977,
      "daily": 6978,
      "freezing": 6979,
      "brant": 6980,
      "snowy": 6981,
      "deser": 6982,
      "desper": 6983,
      "ounce": 6984,
      "œIf": 6985,
      "health": 6986,
      "scrub": 6987,
      "scene": 6988,
      "bushy": 6989,
      "imagin": 6990,
      "Paige": 6991,
      "gesture": 6992,
      "belongings": 6993,
      "springs": 6994,
      "polished": 6995,
      "kittens": 6996,
      "Freddie": 6997,
      "bubbly": 6998,
      "roars": 6999,
      "embarrassm": 7000,
      "folders": 7001,
      "slither": 7002,
      "stormy": 7003,
      "picnics": 7004,
      "business": 7005,
      "matters": 7006,
      "blown": 7007,
      "accur": 7008,
      "wrapping": 7009,
      "swept": 7010,
      "examining": 7011,
      "stumble": 7012,
      "bells": 7013,
      "troubles": 7014,
      "vibrant": 7015,
      "pans": 7016,
      "pizzas": 7017,
      "Leah": 7018,
      "tidied": 7019,
      "disappointment": 7020,
      "trusting": 7021,
      "candies": 7022,
      "Whee": 7023,
      "chews": 7024,
      "chewing": 7025,
      "spreading": 7026,
      "streams": 7027,
      "tidying": 7028,
      "gator": 7029,
      "corners": 7030,
      "films": 7031,
      "lizards": 7032,
      "dolphins": 7033,
      "charge": 7034,
      "drums": 7035,
      "forks": 7036,
      "Stan": 7037,
      "wiping": 7038,
      "wipes": 7039,
      "suitcases": 7040,
      "pitched": 7041,
      "pays": 7042,
      "praying": 7043,
      "hurrying": 7044,
      "borrowed": 7045,
      "ghosts": 7046,
      "chooses": 7047,
      "apologised": 7048,
      "miracle": 7049,
      "energetic": 7050,
      "beams": 7051,
      "necklaces": 7052,
      "ironment": 7053,
      "tempt": 7054,
      "sniffing": 7055,
      "swans": 7056,
      "pepperoni": 7057,
      "environment": 7058,
      "scooted": 7059,
      "awesome": 7060,
      "newspapers": 7061,
      "pumpkins": 7062,
      "scrambled": 7063,
      "clubs": 7064,
      "cuddles": 7065,
      "cuddling": 7066,
      "vanilla": 7067,
      "fascinating": 7068,
      "snuggle": 7069,
      "begs": 7070,
      "hungrily": 7071,
      "wealth": 7072,
      "speaker": 7073,
      "flags": 7074,
      "requested": 7075,
      "hedgehog": 7076,
      "penguins": 7077,
      "models": 7078,
      "increasing": 7079,
      "stacked": 7080,
      "enthusias": 7081,
      "Robby": 7082,
      "limes": 7083,
      "thumbs": 7084,
      "twinkled": 7085,
      "tearing": 7086,
      "helmets": 7087,
      "avocados": 7088,
      "chatted": 7089,
      "caution": 7090,
      "solutions": 7091,
      "solutely": 7092,
      "families": 7093,
      "Louise": 7094,
      "œWeâ": 7095,
      "punishment": 7096,
      "sighs": 7097,
      "releasing": 7098,
      "wiggly": 7099,
      "register": 7100,
      "Coco": 7101,
      "swayed": 7102,
      "rescuing": 7103,
      "behaved": 7104,
      "Yesterday": 7105,
      "crop": 7106,
      "croaked": 7107,
      "prices": 7108,
      "toddlers": 7109,
      "ibly": 7110,
      "slices": 7111,
      "tummies": 7112,
      "racers": 7113,
      "hooked": 7114,
      "providing": 7115,
      "particularly": 7116,
      "disturbing": 7117,
      "Debby": 7118,
      "nearer": 7119,
      "fetch": 7120,
      "fetched": 7121,
      "glittering": 7122,
      "behaviour": 7123,
      "material": 7124,
      "centre": 7125,
      "grant": 7126,
      "granted": 7127,
      "opinion": 7128,
      "opinions": 7129,
      "disagreeing": 7130,
      "Matty": 7131,
      "bounded": 7132,
      "fondly": 7133,
      "timer": 7134,
      "confusion": 7135,
      "squishy": 7136,
      "Mushroom": 7137,
      "Saila": 7138,
      "certain": 7139,
      "unicorn": 7140,
      "chilli": 7141,
      "defeated": 7142,
      "observing": 7143,
      "responsibility": 7144,
      "Surpr": 7145,
      "aisle": 7146,
      "mower": 7147,
      "radish": 7148,
      "snoo": 7149,
      "arranged": 7150,
      "necessary": 7151,
      "mesmerized": 7152,
      "details": 7153,
      "Amelia": 7154,
      "Cynth": 7155,
      "Figure": 7156,
      "Fortunately": 7157,
      "Halloween": 7158,
      "North": 7159,
      "Rusty": 7160,
      "Under": 7161,
      "Wilbur": 7162,
      "audience": 7163,
      "bakery": 7164,
      "evil": 7165,
      "garbage": 7166,
      "husband": 7167,
      "plopped": 7168,
      "pods": 7169,
      "scored": 7170,
      "theatre": 7171,
      "refrigera": 7172,
      "stamped": 7173,
      "veggies": 7174,
      "astonished": 7175,
      "excellent": 7176,
      "peeped": 7177,
      "ongratul": 7178,
      "quieter": 7179,
      "companion": 7180,
      "handkerchief": 7181,
      "concentr": 7182,
      "mischievous": 7183,
      "embarrassment": 7184,
      "enthusiasm": 7185,
      "Cynthia": 7186,
      "refrigerator": 7187,
      "',": 7188,
      "3r": 7189,
      "?!": 7190,
      "AB": 7191,
      "AP": 7192,
      "Again": 7193,
      "Bust": 7194,
      "Boom": 7195,
      "Caw": 7196,
      "DV": 7197,
      "Danger": 7198,
      "Ear": 7199,
      "Eng": 7200,
      "Fight": 7201,
      "Fru": 7202,
      "Fair": 7203,
      "Faster": 7204,
      "Gu": 7205,
      "Girl": 7206,
      "Glad": 7207,
      "Hold": 7208,
      "High": 7209,
      "Hurry": 7210,
      "Im": 7211,
      "Isl": 7212,
      "Ign": 7213,
      "Jod": 7214,
      "Jazz": 7215,
      "Kid": 7216,
      "Light": 7217,
      "Laser": 7218,
      "Much": 7219,
      "NAP": 7220,
      "Pret": 7221,
      "Pine": 7222,
      "Phew": 7223,
      "Rice": 7224,
      "Rolly": 7225,
      "Rudy": 7226,
      "Sw": 7227,
      "Spl": 7228,
      "Show": 7229,
      "Snap": 7230,
      "Spir": 7231,
      "Skeleton": 7232,
      "Satur": 7233,
      "SNAP": 7234,
      "Tid": 7235,
      "Up": 7236,
      "Wor": 7237,
      "Wake": 7238,
      "Yep": 7239,
      "Zara": 7240,
      "Zizz": 7241,
      "awoke": 7242,
      "aimed": 7243,
      "bom": 7244,
      "bam": 7245,
      "bly": 7246,
      "blast": 7247,
      "bumpy": 7248,
      "congratul": 7249,
      "dip": 7250,
      "dips": 7251,
      "elt": 7252,
      "fle": 7253,
      "fished": 7254,
      "fboard": 7255,
      "fading": 7256,
      "faint": 7257,
      "gized": 7258,
      "glistening": 7259,
      "ial": 7260,
      "jured": 7261,
      "kit": 7262,
      "lim": 7263,
      "lam": 7264,
      "liness": 7265,
      "miest": 7266,
      "nu": 7267,
      "ners": 7268,
      "pip": 7269,
      "pouch": 7270,
      "rr": 7271,
      "rin": 7272,
      "rit": 7273,
      "ridge": 7274,
      "sim": 7275,
      "scan": 7276,
      "sandy": 7277,
      "sending": 7278,
      "signing": 7279,
      "tran": 7280,
      "tant": 7281,
      "twel": 7282,
      "tugging": 7283,
      "vit": 7284,
      "wound": 7285,
      "woken": 7286,
      "ying": 7287,
      "œJohn": 7288,
      "œMama": 7289,
      "œMummy": 7290,
      "œMe": 7291,
      "œStop": 7292,
      "œYay": 7293,
      "œThose": 7294,
      "aned": 7295,
      "thest": 7296,
      "inse": 7297,
      "insp": 7298,
      "insec": 7299,
      "injured": 7300,
      "ands": 7301,
      "andon": 7302,
      "toss": 7303,
      "wag": 7304,
      "waded": 7305,
      "wagg": 7306,
      "wadd": 7307,
      "respe": 7308,
      "rect": 7309,
      "rewards": 7310,
      "reappeared": 7311,
      "reaction": 7312,
      "restored": 7313,
      "ition": 7314,
      "haps": 7315,
      "enem": 7316,
      "onds": 7317,
      "arom": 7318,
      "argum": 7319,
      "idle": 7320,
      "lem": 7321,
      "levers": 7322,
      "sam": 7323,
      "image": 7324,
      "imented": 7325,
      "immered": 7326,
      "stur": 7327,
      "stain": 7328,
      "strolled": 7329,
      "orting": 7330,
      "orrow": 7331,
      "loss": 7332,
      "lobby": 7333,
      "ilar": 7334,
      "thous": 7335,
      "vered": 7336,
      "bellowed": 7337,
      "hatched": 7338,
      "uttered": 7339,
      "sewing": 7340,
      "sewed": 7341,
      "aty": 7342,
      "ative": 7343,
      "aming": 7344,
      "keen": 7345,
      "plug": 7346,
      "pluck": 7347,
      "rie": 7348,
      "alled": 7349,
      "within": 7350,
      "unwell": 7351,
      "uncovered": 7352,
      "unison": 7353,
      "aloud": 7354,
      "although": 7355,
      "ality": 7356,
      "asped": 7357,
      "teddies": 7358,
      "youth": 7359,
      "chang": 7360,
      "chunk": 7361,
      "formed": 7362,
      "forced": 7363,
      "forgives": 7364,
      "forgiven": 7365,
      "fortune": 7366,
      "playhouse": 7367,
      "endant": 7368,
      "momma": 7369,
      "boiled": 7370,
      "boiling": 7371,
      "smelt": 7372,
      "outfits": 7373,
      "rack": 7374,
      "raked": 7375,
      "rather": 7376,
      "raises": 7377,
      "raising": 7378,
      "shrank": 7379,
      "shirts": 7380,
      "shimmered": 7381,
      "rosy": 7382,
      "roamed": 7383,
      "friendâ": 7384,
      "exce": 7385,
      "exchange": 7386,
      "pete": 7387,
      "peak": 7388,
      "illum": 7389,
      "noticing": 7390,
      "hoot": 7391,
      "hollow": 7392,
      "agrees": 7393,
      "umed": 7394,
      "absolutely": 7395,
      "abandon": 7396,
      "core": 7397,
      "cocon": 7398,
      "cocked": 7399,
      "foc": 7400,
      "nament": 7401,
      "sideways": 7402,
      "boyâ": 7403,
      "Tomorrow": 7404,
      "stopping": 7405,
      "worn": 7406,
      "failed": 7407,
      "seesaw": 7408,
      "grumbled": 7409,
      "grasped": 7410,
      "caves": 7411,
      "sped": 7412,
      "spat": 7413,
      "sparrow": 7414,
      "udged": 7415,
      "whatâ": 7416,
      "homeless": 7417,
      "muÃ": 7418,
      "deciding": 7419,
      "bridle": 7420,
      "ously": 7421,
      "oldest": 7422,
      "saddle": 7423,
      "ruffled": 7424,
      "goods": 7425,
      "goodies": 7426,
      "goodness": 7427,
      "thanking": 7428,
      "whir": 7429,
      "Everytime": 7430,
      "acles": 7431,
      "harmon": 7432,
      "hardest": 7433,
      "useless": 7434,
      "foreshad": 7435,
      "cares": 7436,
      "thoughts": 7437,
      "ource": 7438,
      "earn": 7439,
      "catcher": 7440,
      "mast": 7441,
      "blu": 7442,
      "blank": 7443,
      "sunsets": 7444,
      "ives": 7445,
      "cluck": 7446,
      "classm": 7447,
      "Weâ": 7448,
      "puck": 7449,
      "obst": 7450,
      "istant": 7451,
      "willow": 7452,
      "untangle": 7453,
      "compete": 7454,
      "handing": 7455,
      "inkled": 7456,
      "cheated": 7457,
      "joyful": 7458,
      "gardener": 7459,
      "surfboard": 7460,
      "shinier": 7461,
      "cleare": 7462,
      "assistant": 7463,
      "concer": 7464,
      "custom": 7465,
      "fived": 7466,
      "workshop": 7467,
      "stems": 7468,
      "peopleâ": 7469,
      "turkeys": 7470,
      "leapt": 7471,
      "treas": 7472,
      "crew": 7473,
      "realizes": 7474,
      "realizing": 7475,
      "Though": 7476,
      "squir": 7477,
      "squirt": 7478,
      "lighting": 7479,
      "lightly": 7480,
      "lessly": 7481,
      "bluebird": 7482,
      "dragging": 7483,
      "sounding": 7484,
      "Sueâ": 7485,
      "dollhouse": 7486,
      "month": 7487,
      "stores": 7488,
      "Instantly": 7489,
      "fills": 7490,
      "Jimbo": 7491,
      "Too": 7492,
      "dining": 7493,
      "snar": 7494,
      "Looking": 7495,
      "baa": 7496,
      "bathing": 7497,
      "Which": 7498,
      "parcel": 7499,
      "storybook": 7500,
      "crouched": 7501,
      "gulped": 7502,
      "frames": 7503,
      "traps": 7504,
      "sweetly": 7505,
      "drives": 7506,
      "floats": 7507,
      "movements": 7508,
      "resumed": 7509,
      "resource": 7510,
      "petting": 7511,
      "meaning": 7512,
      "correct": 7513,
      "softened": 7514,
      "welcoming": 7515,
      "prints": 7516,
      "creations": 7517,
      "promises": 7518,
      "lioness": 7519,
      "swimsuit": 7520,
      "peddled": 7521,
      "fairly": 7522,
      "tasting": 7523,
      "draws": 7524,
      "covers": 7525,
      "larger": 7526,
      "wrinkled": 7527,
      "lessons": 7528,
      "duckling": 7529,
      "lands": 7530,
      "sparks": 7531,
      "tripping": 7532,
      "inserted": 7533,
      "cloudy": 7534,
      "pens": 7535,
      "prod": 7536,
      "proved": 7537,
      "process": 7538,
      "pointy": 7539,
      "mustered": 7540,
      "juiciest": 7541,
      "zzled": 7542,
      "persu": 7543,
      "naps": 7544,
      "napkins": 7545,
      "training": 7546,
      "loneliness": 7547,
      "rivers": 7548,
      "riverbank": 7549,
      "alongside": 7550,
      "Mummyâ": 7551,
      "baths": 7552,
      "treated": 7553,
      "quietest": 7554,
      "dashed": 7555,
      "seahorse": 7556,
      "snowball": 7557,
      "desire": 7558,
      "startled": 7559,
      "rotted": 7560,
      "teachers": 7561,
      "comforting": 7562,
      "glanc": 7563,
      "calf": 7564,
      "touches": 7565,
      "lays": 7566,
      "presence": 7567,
      "practising": 7568,
      "knives": 7569,
      "scow": 7570,
      "scribb": 7571,
      "heartbroken": 7572,
      "smoothie": 7573,
      "circl": 7574,
      "giggles": 7575,
      "sacks": 7576,
      "drivers": 7577,
      "meetings": 7578,
      "figuring": 7579,
      "grazing": 7580,
      "granddad": 7581,
      "granddaughter": 7582,
      "grandparent": 7583,
      "lunchtime": 7584,
      "spoiling": 7585,
      "burger": 7586,
      "shyly": 7587,
      "attendant": 7588,
      "bubbling": 7589,
      "benches": 7590,
      "Susan": 7591,
      "meadows": 7592,
      "jars": 7593,
      "pools": 7594,
      "figures": 7595,
      "cleared": 7596,
      "puzzled": 7597,
      "Sandyâ": 7598,
      "prey": 7599,
      "dived": 7600,
      "nests": 7601,
      "angels": 7602,
      "protector": 7603,
      "bellies": 7604,
      "finishing": 7605,
      "Whoa": 7606,
      "Whoâ": 7607,
      "Whose": 7608,
      "Whoever": 7609,
      "flick": 7610,
      "flips": 7611,
      "seatbelt": 7612,
      "depths": 7613,
      "moonwalk": 7614,
      "cages": 7615,
      "panick": 7616,
      "stairways": 7617,
      "soups": 7618,
      "Lemon": 7619,
      "glows": 7620,
      "leads": 7621,
      "trusty": 7622,
      "desks": 7623,
      "brilliantly": 7624,
      "tickly": 7625,
      "relaxing": 7626,
      "relic": 7627,
      "honeybee": 7628,
      "supplying": 7629,
      "obediently": 7630,
      "gazing": 7631,
      "incredibly": 7632,
      "extraordinary": 7633,
      "complimented": 7634,
      "leafy": 7635,
      "guardian": 7636,
      "pops": 7637,
      "loads": 7638,
      "Helping": 7639,
      "toughest": 7640,
      "checking": 7641,
      "checkout": 7642,
      "princesses": 7643,
      "persistence": 7644,
      "humming": 7645,
      "teapot": 7646,
      "harmful": 7647,
      "Stand": 7648,
      "Still": 7649,
      "awful": 7650,
      "awoken": 7651,
      "flashing": 7652,
      "battle": 7653,
      "prayers": 7654,
      "tunnels": 7655,
      "seriously": 7656,
      "Books": 7657,
      "sweeter": 7658,
      "speeding": 7659,
      "peeking": 7660,
      "stubbornness": 7661,
      "travels": 7662,
      "energized": 7663,
      "doesnâ": 7664,
      "portra": 7665,
      "tempted": 7666,
      "diamonds": 7667,
      "spills": 7668,
      "spilling": 7669,
      "cupboards": 7670,
      "strict": 7671,
      "pigeons": 7672,
      "creepy": 7673,
      "improving": 7674,
      "hammering": 7675,
      "envelopes": 7676,
      "windowsill": 7677,
      "New": 7678,
      "Roar": 7679,
      "Rock": 7680,
      "cuddly": 7681,
      "delaying": 7682,
      "lollipops": 7683,
      "porridge": 7684,
      "Uncle": 7685,
      "risen": 7686,
      "supermarket": 7687,
      "wires": 7688,
      "buzzer": 7689,
      "breathing": 7690,
      "speaks": 7691,
      "knocking": 7692,
      "crawls": 7693,
      "Trust": 7694,
      "cadabra": 7695,
      "rays": 7696,
      "sneaked": 7697,
      "coolest": 7698,
      "darted": 7699,
      "zigzagged": 7700,
      "igloos": 7701,
      "burying": 7702,
      "sheets": 7703,
      "unpacking": 7704,
      "shortly": 7705,
      "Pole": 7706,
      "ornament": 7707,
      "choices": 7708,
      "destinations": 7709,
      "humans": 7710,
      "Shh": 7711,
      "rumour": 7712,
      "cauliflowers": 7713,
      "internet": 7714,
      "sprinkle": 7715,
      "tunes": 7716,
      "heels": 7717,
      "announced": 7718,
      "boost": 7719,
      "booth": 7720,
      "accomplish": 7721,
      "padlock": 7722,
      "sips": 7723,
      "stalks": 7724,
      "languages": 7725,
      "seagulls": 7726,
      "smarts": 7727,
      "contained": 7728,
      "revealing": 7729,
      "Frosty": 7730,
      "fishes": 7731,
      "werenâ": 7732,
      "tournament": 7733,
      "posts": 7734,
      "activity": 7735,
      "scattering": 7736,
      "guessing": 7737,
      "Adventure": 7738,
      "Puddles": 7739,
      "cousins": 7740,
      "fashions": 7741,
      "targets": 7742,
      "stroke": 7743,
      "swirled": 7744,
      "sniffs": 7745,
      "sniffled": 7746,
      "reassuring": 7747,
      "Birdy": 7748,
      "biking": 7749,
      "cotton": 7750,
      "tumbled": 7751,
      "quacked": 7752,
      "crunching": 7753,
      "Deaf": 7754,
      "instantly": 7755,
      "youngest": 7756,
      "glittery": 7757,
      "Doesn": 7758,
      "twists": 7759,
      "AAAA": 7760,
      "Matilda": 7761,
      "Percy": 7762,
      "sensation": 7763,
      "threatened": 7764,
      "confusing": 7765,
      "gallery": 7766,
      "yummiest": 7767,
      "harvested": 7768,
      "character": 7769,
      "characters": 7770,
      "guests": 7771,
      "interrupted": 7772,
      "teaspoon": 7773,
      "teaspoons": 7774,
      "Playing": 7775,
      "nibbled": 7776,
      "opportun": 7777,
      "pony": 7778,
      "sculptures": 7779,
      "adjusted": 7780,
      "clutching": 7781,
      "squinted": 7782,
      "involved": 7783,
      "reflection": 7784,
      "possessions": 7785,
      "Anytime": 7786,
      "Imagine": 7787,
      "rejoiced": 7788,
      "melodies": 7789,
      "builders": 7790,
      "wobbly": 7791,
      "whizzed": 7792,
      "suspic": 7793,
      "slithered": 7794,
      "temptation": 7795,
      "concentrated": 7796,
      "3rd": 7797,
      "ABC": 7798,
      "Buster": 7799,
      "DVD": 7800,
      "Earth": 7801,
      "English": 7802,
      "Fighting": 7803,
      "Immediately": 7804,
      "Island": 7805,
      "Ignor": 7806,
      "Jody": 7807,
      "Kids": 7808,
      "Lightning": 7809,
      "Pretty": 7810,
      "Swim": 7811,
      "Spirit": 7812,
      "Saturday": 7813,
      "Tidy": 7814,
      "bomb": 7815,
      "bamboo": 7816,
      "congratulated": 7817,
      "limits": 7818,
      "nuzzled": 7819,
      "trans": 7820,
      "tantrum": 7821,
      "twelve": 7822,
      "inspired": 7823,
      "insects": 7824,
      "waddled": 7825,
      "respected": 7826,
      "enemies": 7827,
      "aroma": 7828,
      "argument": 7829,
      "sturdy": 7830,
      "changing": 7831,
      "illumin": 7832,
      "abandoned": 7833,
      "coconut": 7834,
      "harmony": 7835,
      "foreshadowed": 7836,
      "classmates": 7837,
      "concern": 7838,
      "customers": 7839,
      "!?\"": 7840,
      "!,\"": 7841,
      ",'": 7842,
      ":\"": 7843,
      "?!\".": 7844,
      "Ar": 7845,
      "Ama": 7846,
      "Abra": 7847,
      "Achoo": 7848,
      "Bes": 7849,
      "Bless": 7850,
      "Boney": 7851,
      "Bull": 7852,
      "Che": 7853,
      "Could": 7854,
      "Care": 7855,
      "Cho": 7856,
      "Coo": 7857,
      "Close": 7858,
      "Cleaning": 7859,
      "Clem": 7860,
      "Din": 7861,
      "Dra": 7862,
      "Down": 7863,
      "Dear": 7864,
      "Ever": 7865,
      "Eat": 7866,
      "East": 7867,
      "Fa": 7868,
      "Fish": 7869,
      "Flower": 7870,
      "Got": 7871,
      "Goo": 7872,
      "Gem": 7873,
      "Gorilla": 7874,
      "HE": 7875,
      "Had": 7876,
      "Hot": 7877,
      "Hide": 7878,
      "Honest": 7879,
      "Hmm": 7880,
      "Kiss": 7881,
      "Lu": 7882,
      "Life": 7883,
      "Lots": 7884,
      "Mc": 7885,
      "Mir": 7886,
      "Moo": 7887,
      "Mister": 7888,
      "Never": 7889,
      "Off": 7890,
      "Open": 7891,
      "Pl": 7892,
      "Pass": 7893,
      "Pizz": 7894,
      "Que": 7895,
      "Raven": 7896,
      "Spark": 7897,
      "Sour": 7898,
      "Such": 7899,
      "Sleep": 7900,
      "Stick": 7901,
      "Story": 7902,
      "Said": 7903,
      "Shoo": 7904,
      "Ta": 7905,
      "Tur": 7906,
      "Tears": 7907,
      "Twitch": 7908,
      "THE": 7909,
      "Use": 7910,
      "Win": 7911,
      "Wave": 7912,
      "Want": 7913,
      "Wash": 7914,
      "Yummy": 7915,
      "Years": 7916,
      "au": 7917,
      "aco": 7918,
      "awhile": 7919,
      "atop": 7920,
      "aware": 7921,
      "bid": 7922,
      "bitten": 7923,
      "cine": 7924,
      "dand": 7925,
      "dot": 7926,
      "double": 7927,
      "dreds": 7928,
      "ech": 7929,
      "eves": 7930,
      "elect": 7931,
      "elions": 7932,
      "fate": 7933,
      "gut": 7934,
      "gig": 7935,
      "gad": 7936,
      "gross": 7937,
      "glistened": 7938,
      "gap": 7939,
      "grip": 7940,
      "gloss": 7941,
      "ipp": 7942,
      "iens": 7943,
      "jing": 7944,
      "jig": 7945,
      "kward": 7946,
      "litt": 7947,
      "lings": 7948,
      "lens": 7949,
      "lull": 7950,
      "mid": 7951,
      "mun": 7952,
      "mac": 7953,
      "mers": 7954,
      "mble": 7955,
      "ns": 7956,
      "nier": 7957,
      "nations": 7958,
      "natur": 7959,
      "oily": 7960,
      "othing": 7961,
      "obl": 7962,
      "ocu": 7963,
      "pound": 7964,
      "pout": 7965,
      "pry": 7966,
      "pran": 7967,
      "pant": 7968,
      "pity": 7969,
      "pounced": 7970,
      "rs": 7971,
      "rist": 7972,
      "slo": 7973,
      "sill": 7974,
      "swat": 7975,
      "swell": 7976,
      "sire": 7977,
      "sizz": 7978,
      "sens": 7979,
      "til": 7980,
      "tir": 7981,
      "tiss": 7982,
      "uing": 7983,
      "vate": 7984,
      "vines": 7985,
      "vari": 7986,
      "wit": 7987,
      "yy": 7988,
      "zier": 7989,
      "œE": 7990,
      "œOnce": 7991,
      "œJack": 7992,
      "œJane": 7993,
      "œDad": 7994,
      "œMolly": 7995,
      "œokay": 7996,
      "œAmy": 7997,
      "œBe": 7998,
      "œMum": 7999,
      "œJust": 8000,
      "œGo": 8001,
      "œPlease": 8002,
      "œOkay": 8003,
      "œhi": 8004,
      "œHelp": 8005,
      "œWait": 8006,
      "œTake": 8007,
      "œWelcome": 8008,
      "œTime": 8009,
      "œSir": 8010,
      "œQuick": 8011,
      "œPick": 8012,
      "œGlad": 8013,
      "œStand": 8014,
      "anation": 8015,
      "thed": 8016,
      "eds": 8017,
      "eding": 8018,
      "inched": 8019,
      "inng": 8020,
      "inform": 8021,
      "instru": 8022,
      "infan": 8023,
      "insepar": 8024,
      "toe": 8025,
      "topp": 8026,
      "tori": 8027,
      "toun": 8028,
      "tocked": 8029,
      "waists": 8030,
      "rer": 8031,
      "reck": 8032,
      "ream": 8033,
      "rely": 8034,
      "reass": 8035,
      "rent": 8036,
      "rebuild": 8037,
      "recess": 8038,
      "removing": 8039,
      "iten": 8040,
      "err": 8041,
      "erina": 8042,
      "habit": 8043,
      "haired": 8044,
      "ena": 8045,
      "ening": 8046,
      "encoun": 8047,
      "onde": 8048,
      "army": 8049,
      "aries": 8050,
      "arose": 8051,
      "archer": 8052,
      "iser": 8053,
      "isbee": 8054,
      "ishes": 8055,
      "iddy": 8056,
      "savor": 8057,
      "immed": 8058,
      "stif": 8059,
      "state": 8060,
      "stung": 8061,
      "stroll": 8062,
      "stitched": 8063,
      "stuttered": 8064,
      "oray": 8065,
      "ilst": 8066,
      "Hear": 8067,
      "neg": 8068,
      "neys": 8069,
      "beats": 8070,
      "begging": 8071,
      "ute": 8072,
      "utted": 8073,
      "cking": 8074,
      "sobs": 8075,
      "soaking": 8076,
      "soothing": 8077,
      "iged": 8078,
      "ammed": 8079,
      "amused": 8080,
      "hissing": 8081,
      "pled": 8082,
      "plaster": 8083,
      "adop": 8084,
      "adds": 8085,
      "adually": 8086,
      "rible": 8087,
      "rips": 8088,
      "ricity": 8089,
      "undo": 8090,
      "unwanted": 8091,
      "unfair": 8092,
      "uncover": 8093,
      "uniting": 8094,
      "ungrateful": 8095,
      "unroll": 8096,
      "unity": 8097,
      "unloaded": 8098,
      "Theyâ": 8099,
      "allest": 8100,
      "aliens": 8101,
      "asers": 8102,
      "asive": 8103,
      "astoun": 8104,
      "liking": 8105,
      "chime": 8106,
      "chugged": 8107,
      "chugging": 8108,
      "forwards": 8109,
      "fears": 8110,
      "feature": 8111,
      "entert": 8112,
      "gears": 8113,
      "geese": 8114,
      "boar": 8115,
      "bosses": 8116,
      "bodies": 8117,
      "thereâ": 8118,
      "Lilyâ": 8119,
      "smear": 8120,
      "smallest": 8121,
      "outdoor": 8122,
      "outcomes": 8123,
      "shif": 8124,
      "shorts": 8125,
      "shimmering": 8126,
      "Only": 8127,
      "roots": 8128,
      "robats": 8129,
      "dock": 8130,
      "dozed": 8131,
      "dozing": 8132,
      "extre": 8133,
      "exchanged": 8134,
      "pey": 8135,
      "peat": 8136,
      "peaches": 8137,
      "peaco": 8138,
      "hovered": 8139,
      "odil": 8140,
      "ety": 8141,
      "etite": 8142,
      "carton": 8143,
      "demon": 8144,
      "device": 8145,
      "urging": 8146,
      "mood": 8147,
      "fulfill": 8148,
      "ably": 8149,
      "ability": 8150,
      "meâ": 8151,
      "mely": 8152,
      "meters": 8153,
      "coal": 8154,
      "cobra": 8155,
      "cozier": 8156,
      "ically": 8157,
      "helpers": 8158,
      "background": 8159,
      "starling": 8160,
      "cans": 8161,
      "cany": 8162,
      "mango": 8163,
      "Tomâ": 8164,
      "stool": 8165,
      "launch": 8166,
      "worthy": 8167,
      "option": 8168,
      "faith": 8169,
      "birdâ": 8170,
      "birdseed": 8171,
      "grouch": 8172,
      "gradually": 8173,
      "cafe": 8174,
      "spar": 8175,
      "spoo": 8176,
      "spoken": 8177,
      "lookout": 8178,
      "Moments": 8179,
      "quired": 8180,
      "parkâ": 8181,
      "decre": 8182,
      "whose": 8183,
      "whooping": 8184,
      "brist": 8185,
      "ousers": 8186,
      "speech": 8187,
      "downtown": 8188,
      "dered": 8189,
      "whined": 8190,
      "whilst": 8191
    },
    "merges": [
      [
        "h",
        "e"
      ],
      [
        "a",
        "n"
      ],
      [
        "t",
        "he"
      ],
      [
        "e",
        "d"
      ],
      [
        "i",
        "n"
      ],
      [
        "an",
        "d"
      ],
      [
        "t",
        "o"
      ],
      [
        "w",
        "a"
      ],
      [
        "r",
        "e"
      ],
      [
        "i",
        "t"
      ],
      [
        "o",
        "u"
      ],
      [
        "e",
        "r"
      ],
      [
        "h",
        "a"
      ],
      [
        "wa",
        "s"
      ],
      [
        "e",
        "n"
      ],
      [
        "o",
        "n"
      ],
      [
        "a",
        "r"
      ],
      [
        "in",
        "g"
      ],
      [
        "o",
        "m"
      ],
      [
        "i",
        "s"
      ],
      [
        "T",
        "he"
      ],
      [
        "i",
        "d"
      ],
      [
        "l",
        "e"
      ],
      [
        "s",
        "a"
      ],
      [
        "l",
        "l"
      ],
      [
        "a",
        "y"
      ],
      [
        "i",
        "m"
      ],
      [
        "s",
        "t"
      ],
      [
        "o",
        "r"
      ],
      [
        "l",
        "o"
      ],
      [
        "i",
        "l"
      ],
      [
        "t",
        "h"
      ],
      [
        "he",
        "r"
      ],
      [
        "H",
        "e"
      ],
      [
        "i",
        "r"
      ],
      [
        "v",
        "er"
      ],
      [
        "n",
        "e"
      ],
      [
        "b",
        "e"
      ],
      [
        "S",
        "he"
      ],
      [
        "ha",
        "t"
      ],
      [
        "l",
        "d"
      ],
      [
        "u",
        "t"
      ],
      [
        "c",
        "e"
      ],
      [
        "c",
        "k"
      ],
      [
        "s",
        "e"
      ],
      [
        "s",
        "he"
      ],
      [
        "a",
        "t"
      ],
      [
        "s",
        "o"
      ],
      [
        "sa",
        "id"
      ],
      [
        "o",
        "w"
      ],
      [
        "i",
        "g"
      ],
      [
        "a",
        "m"
      ],
      [
        "k",
        "e"
      ],
      [
        "p",
        "p"
      ],
      [
        "h",
        "is"
      ],
      [
        "o",
        "f"
      ],
      [
        "v",
        "e"
      ],
      [
        "p",
        "l"
      ],
      [
        "it",
        "h"
      ],
      [
        "a",
        "d"
      ],
      [
        "k",
        "ed"
      ],
      [
        "r",
        "i"
      ],
      [
        "a",
        "ll"
      ],
      [
        "d",
        "ay"
      ],
      [
        "ver",
        "y"
      ],
      [
        "w",
        "ith"
      ],
      [
        "u",
        "n"
      ],
      [
        "The",
        "y"
      ],
      [
        "om",
        "e"
      ],
      [
        "u",
        "p"
      ],
      [
        "o",
        "t"
      ],
      [
        "a",
        "l"
      ],
      [
        "a",
        "s"
      ],
      [
        "t",
        "hat"
      ],
      [
        "t",
        "ed"
      ],
      [
        "w",
        "e"
      ],
      [
        "ha",
        "d"
      ],
      [
        "m",
        "y"
      ],
      [
        "y",
        "ou"
      ],
      [
        "l",
        "i"
      ],
      [
        "c",
        "h"
      ],
      [
        "n",
        "d"
      ],
      [
        "il",
        "y"
      ],
      [
        "it",
        "t"
      ],
      [
        "ou",
        "ld"
      ],
      [
        "f",
        "or"
      ],
      [
        "f",
        "e"
      ],
      [
        "en",
        "t"
      ],
      [
        "g",
        "e"
      ],
      [
        "pl",
        "ay"
      ],
      [
        "the",
        "y"
      ],
      [
        "im",
        "e"
      ],
      [
        "l",
        "y"
      ],
      [
        "t",
        "ime"
      ],
      [
        "itt",
        "le"
      ],
      [
        "ou",
        "nd"
      ],
      [
        "en",
        "d"
      ],
      [
        "l",
        "ittle"
      ],
      [
        "ha",
        "pp"
      ],
      [
        "m",
        "om"
      ],
      [
        "b",
        "o"
      ],
      [
        "the",
        "re"
      ],
      [
        "L",
        "ily"
      ],
      [
        "s",
        "m"
      ],
      [
        "e",
        "s"
      ],
      [
        "ou",
        "t"
      ],
      [
        "h",
        "t"
      ],
      [
        "w",
        "an"
      ],
      [
        "g",
        "o"
      ],
      [
        "the",
        "r"
      ],
      [
        "o",
        "k"
      ],
      [
        "r",
        "a"
      ],
      [
        "s",
        "h"
      ],
      [
        "th",
        "ing"
      ],
      [
        "a",
        "ck"
      ],
      [
        "I",
        "t"
      ],
      [
        "happ",
        "y"
      ],
      [
        "on",
        "e"
      ],
      [
        "O",
        "n"
      ],
      [
        "b",
        "ig"
      ],
      [
        "r",
        "o"
      ],
      [
        "d",
        "o"
      ],
      [
        "b",
        "ut"
      ],
      [
        "t",
        "er"
      ],
      [
        "s",
        "ome"
      ],
      [
        "On",
        "ce"
      ],
      [
        "sa",
        "w"
      ],
      [
        "O",
        "ne"
      ],
      [
        "ri",
        "end"
      ],
      [
        "f",
        "riend"
      ],
      [
        "v",
        "ed"
      ],
      [
        "r",
        "y"
      ],
      [
        "wa",
        "y"
      ],
      [
        "f",
        "u"
      ],
      [
        "ir",
        "l"
      ],
      [
        "a",
        "re"
      ],
      [
        "u",
        "g"
      ],
      [
        "g",
        "irl"
      ],
      [
        "id",
        "e"
      ],
      [
        "a",
        "ke"
      ],
      [
        "e",
        "x"
      ],
      [
        "p",
        "e"
      ],
      [
        "we",
        "re"
      ],
      [
        "i",
        "ll"
      ],
      [
        "up",
        "on"
      ],
      [
        "h",
        "im"
      ],
      [
        "n",
        "ot"
      ],
      [
        "T",
        "im"
      ],
      [
        "!",
        "\""
      ],
      [
        ".",
        "\""
      ],
      [
        "wan",
        "ted"
      ],
      [
        "h",
        "o"
      ],
      [
        "c",
        "ould"
      ],
      [
        "o",
        "d"
      ],
      [
        "he",
        "n"
      ],
      [
        "a",
        "g"
      ],
      [
        "in",
        "d"
      ],
      [
        "e",
        "t"
      ],
      [
        "c",
        "ar"
      ],
      [
        "d",
        "e"
      ],
      [
        "u",
        "r"
      ],
      [
        "w",
        "ent"
      ],
      [
        "u",
        "m"
      ],
      [
        "m",
        "o"
      ],
      [
        "il",
        "ed"
      ],
      [
        "fu",
        "l"
      ],
      [
        "a",
        "b"
      ],
      [
        "m",
        "e"
      ],
      [
        "r",
        "om"
      ],
      [
        "l",
        "p"
      ],
      [
        "ne",
        "w"
      ],
      [
        "c",
        "o"
      ],
      [
        "he",
        "d"
      ],
      [
        "sm",
        "iled"
      ],
      [
        "ig",
        "ht"
      ],
      [
        "ar",
        "ound"
      ],
      [
        "the",
        "m"
      ],
      [
        "f",
        "o"
      ],
      [
        "i",
        "c"
      ],
      [
        "a",
        "in"
      ],
      [
        "n",
        "am"
      ],
      [
        "friend",
        "s"
      ],
      [
        "he",
        "lp"
      ],
      [
        "ou",
        "g"
      ],
      [
        "r",
        "an"
      ],
      [
        "b",
        "ack"
      ],
      [
        "st",
        "ar"
      ],
      [
        "d",
        "id"
      ],
      [
        "s",
        "ide"
      ],
      [
        "c",
        "an"
      ],
      [
        "B",
        "ut"
      ],
      [
        "l",
        "t"
      ],
      [
        "ar",
        "d"
      ],
      [
        "lo",
        "o"
      ],
      [
        "ha",
        "ve"
      ],
      [
        "as",
        "ked"
      ],
      [
        "?",
        "\""
      ],
      [
        "the",
        "ir"
      ],
      [
        "ar",
        "k"
      ],
      [
        "f",
        "un"
      ],
      [
        "loo",
        "ked"
      ],
      [
        "bo",
        "y"
      ],
      [
        "p",
        "r"
      ],
      [
        "m",
        "an"
      ],
      [
        "u",
        "re"
      ],
      [
        "T",
        "om"
      ],
      [
        "s",
        "to"
      ],
      [
        "w",
        "ould"
      ],
      [
        "l",
        "a"
      ],
      [
        "fe",
        "lt"
      ],
      [
        "lo",
        "ved"
      ],
      [
        "nam",
        "ed"
      ],
      [
        "ow",
        "n"
      ],
      [
        "w",
        "or"
      ],
      [
        "i",
        "ck"
      ],
      [
        "Tim",
        "my"
      ],
      [
        "am",
        "e"
      ],
      [
        "it",
        "ed"
      ],
      [
        "B",
        "en"
      ],
      [
        "re",
        "e"
      ],
      [
        "ex",
        "c"
      ],
      [
        "some",
        "thing"
      ],
      [
        "to",
        "o"
      ],
      [
        "li",
        "ke"
      ],
      [
        "on",
        "g"
      ],
      [
        "b",
        "ir"
      ],
      [
        "star",
        "ted"
      ],
      [
        "o",
        "p"
      ],
      [
        "f",
        "a"
      ],
      [
        "n",
        "o"
      ],
      [
        "ge",
        "ther"
      ],
      [
        "bir",
        "d"
      ],
      [
        "se",
        "e"
      ],
      [
        "g",
        "r"
      ],
      [
        "c",
        "a"
      ],
      [
        "e",
        "l"
      ],
      [
        "y",
        "s"
      ],
      [
        "s",
        "p"
      ],
      [
        "t",
        "s"
      ],
      [
        "a",
        "way"
      ],
      [
        "pp",
        "ed"
      ],
      [
        "ad",
        "e"
      ],
      [
        "exc",
        "ited"
      ],
      [
        "to",
        "gether"
      ],
      [
        "i",
        "ce"
      ],
      [
        "u",
        "d"
      ],
      [
        "ou",
        "d"
      ],
      [
        "c",
        "i"
      ],
      [
        "s",
        "s"
      ],
      [
        "w",
        "hat"
      ],
      [
        "the",
        "n"
      ],
      [
        "m",
        "ake"
      ],
      [
        "o",
        "ther"
      ],
      [
        "n",
        "ow"
      ],
      [
        "h",
        "ome"
      ],
      [
        "ge",
        "t"
      ],
      [
        "b",
        "y"
      ],
      [
        "c",
        "ame"
      ],
      [
        "Y",
        "ou"
      ],
      [
        "wa",
        "l"
      ],
      [
        "lo",
        "ok"
      ],
      [
        "M",
        "om"
      ],
      [
        "all",
        "y"
      ],
      [
        "m",
        "ade"
      ],
      [
        "q",
        "u"
      ],
      [
        "i",
        "e"
      ],
      [
        "g",
        "ot"
      ],
      [
        "f",
        "ound"
      ],
      [
        "m",
        "u"
      ],
      [
        "p",
        "ark"
      ],
      [
        "ag",
        "ain"
      ],
      [
        "f",
        "rom"
      ],
      [
        ",",
        "\""
      ],
      [
        "de",
        "c"
      ],
      [
        "w",
        "hen"
      ],
      [
        "p",
        "ut"
      ],
      [
        "J",
        "o"
      ],
      [
        "w",
        "ho"
      ],
      [
        "i",
        "f"
      ],
      [
        "oug",
        "ht"
      ],
      [
        "e",
        "very"
      ],
      [
        "b",
        "r"
      ],
      [
        "k",
        "ing"
      ],
      [
        "ou",
        "s"
      ],
      [
        "o",
        "ld"
      ],
      [
        "j",
        "o"
      ],
      [
        "s",
        "pe"
      ],
      [
        "play",
        "ing"
      ],
      [
        "sa",
        "d"
      ],
      [
        "S",
        "o"
      ],
      [
        "e",
        "p"
      ],
      [
        "ud",
        "d"
      ],
      [
        "i",
        "le"
      ],
      [
        "id",
        "ed"
      ],
      [
        "dec",
        "ided"
      ],
      [
        "lo",
        "w"
      ],
      [
        "s",
        "car"
      ],
      [
        "a",
        "ch"
      ],
      [
        "b",
        "u"
      ],
      [
        "r",
        "u"
      ],
      [
        "go",
        "od"
      ],
      [
        "mo",
        "re"
      ],
      [
        "w",
        "o"
      ],
      [
        "thing",
        "s"
      ],
      [
        "a",
        "ve"
      ],
      [
        "ri",
        "ed"
      ],
      [
        "t",
        "e"
      ],
      [
        "ou",
        "se"
      ],
      [
        "n",
        "y"
      ],
      [
        "th",
        "an"
      ],
      [
        "b",
        "b"
      ],
      [
        "way",
        "s"
      ],
      [
        "d",
        "own"
      ],
      [
        "fe",
        "el"
      ],
      [
        "f",
        "ind"
      ],
      [
        "udd",
        "en"
      ],
      [
        "d",
        "er"
      ],
      [
        "w",
        "h"
      ],
      [
        "h",
        "ug"
      ],
      [
        "J",
        "ack"
      ],
      [
        "t",
        "ake"
      ],
      [
        "E",
        "very"
      ],
      [
        "spe",
        "ci"
      ],
      [
        "W",
        "hen"
      ],
      [
        "wan",
        "t"
      ],
      [
        "speci",
        "al"
      ],
      [
        "a",
        "c"
      ],
      [
        "ha",
        "r"
      ],
      [
        "udden",
        "ly"
      ],
      [
        "t",
        "ree"
      ],
      [
        "he",
        "re"
      ],
      [
        "al",
        "ways"
      ],
      [
        "u",
        "se"
      ],
      [
        "fo",
        "re"
      ],
      [
        "it",
        "e"
      ],
      [
        "scar",
        "ed"
      ],
      [
        "n",
        "a"
      ],
      [
        "c",
        "are"
      ],
      [
        "th",
        "ought"
      ],
      [
        "c",
        "lo"
      ],
      [
        "ll",
        "y"
      ],
      [
        "ou",
        "r"
      ],
      [
        "at",
        "e"
      ],
      [
        "ab",
        "out"
      ],
      [
        "d",
        "ad"
      ],
      [
        "u",
        "st"
      ],
      [
        "ne",
        "ver"
      ],
      [
        "to",
        "ok"
      ],
      [
        "e",
        "ar"
      ],
      [
        "en",
        "ed"
      ],
      [
        "did",
        "n"
      ],
      [
        "is",
        "e"
      ],
      [
        "li",
        "ked"
      ],
      [
        "la",
        "ug"
      ],
      [
        "f",
        "ter"
      ],
      [
        "p",
        "o"
      ],
      [
        "re",
        "t"
      ],
      [
        "u",
        "e"
      ],
      [
        "an",
        "t"
      ],
      [
        "c",
        "at"
      ],
      [
        "k",
        "new"
      ],
      [
        "ro",
        "om"
      ],
      [
        "v",
        "en"
      ],
      [
        "do",
        "g"
      ],
      [
        "you",
        "r"
      ],
      [
        "out",
        "side"
      ],
      [
        "S",
        "uddenly"
      ],
      [
        "m",
        "a"
      ],
      [
        "er",
        "s"
      ],
      [
        "u",
        "c"
      ],
      [
        "s",
        "k"
      ],
      [
        "le",
        "ar"
      ],
      [
        "b",
        "l"
      ],
      [
        "u",
        "s"
      ],
      [
        "could",
        "n"
      ],
      [
        "h",
        "ow"
      ],
      [
        "ab",
        "le"
      ],
      [
        "n",
        "ed"
      ],
      [
        "ar",
        "a"
      ],
      [
        "mu",
        "ch"
      ],
      [
        "g",
        "ed"
      ],
      [
        "t",
        "y"
      ],
      [
        "d",
        "re"
      ],
      [
        "s",
        "un"
      ],
      [
        "H",
        "er"
      ],
      [
        "an",
        "y"
      ],
      [
        "c",
        "ome"
      ],
      [
        "l",
        "f"
      ],
      [
        "i",
        "on"
      ],
      [
        "in",
        "to"
      ],
      [
        "S",
        "am"
      ],
      [
        "o",
        "ver"
      ],
      [
        "is",
        "h"
      ],
      [
        "i",
        "ve"
      ],
      [
        "k",
        "now"
      ],
      [
        "pr",
        "oud"
      ],
      [
        "b",
        "all"
      ],
      [
        "H",
        "is"
      ],
      [
        "th",
        "is"
      ],
      [
        "sh",
        "ow"
      ],
      [
        "re",
        "at"
      ],
      [
        "v",
        "ent"
      ],
      [
        "oug",
        "h"
      ],
      [
        "c",
        "t"
      ],
      [
        "l",
        "ong"
      ],
      [
        "h",
        "n"
      ],
      [
        "Jo",
        "hn"
      ],
      [
        "L",
        "et"
      ],
      [
        "he",
        "ard"
      ],
      [
        "M",
        "a"
      ],
      [
        "c",
        "l"
      ],
      [
        "mom",
        "my"
      ],
      [
        "sa",
        "ys"
      ],
      [
        "h",
        "ouse"
      ],
      [
        "p",
        "a"
      ],
      [
        "S",
        "ara"
      ],
      [
        "in",
        "side"
      ],
      [
        "n",
        "ing"
      ],
      [
        "f",
        "ly"
      ],
      [
        "an",
        "g"
      ],
      [
        "wa",
        "r"
      ],
      [
        "W",
        "e"
      ],
      [
        "c",
        "all"
      ],
      [
        "p",
        "u"
      ],
      [
        "o",
        "b"
      ],
      [
        "is",
        "t"
      ],
      [
        "to",
        "y"
      ],
      [
        "r",
        "un"
      ],
      [
        "t",
        "a"
      ],
      [
        "w",
        "ill"
      ],
      [
        "un",
        "t"
      ],
      [
        "ra",
        "bb"
      ],
      [
        "c",
        "om"
      ],
      [
        "The",
        "n"
      ],
      [
        "g",
        "ave"
      ],
      [
        "Ma",
        "x"
      ],
      [
        "h",
        "and"
      ],
      [
        "to",
        "ld"
      ],
      [
        "of",
        "f"
      ],
      [
        "v",
        "ing"
      ],
      [
        "to",
        "ys"
      ],
      [
        "sm",
        "all"
      ],
      [
        "j",
        "ust"
      ],
      [
        "wa",
        "ter"
      ],
      [
        "A",
        "n"
      ],
      [
        "wa",
        "t"
      ],
      [
        "s",
        "w"
      ],
      [
        "be",
        "a"
      ],
      [
        "se",
        "lf"
      ],
      [
        "am",
        "a"
      ],
      [
        "ca",
        "use"
      ],
      [
        "p",
        "ick"
      ],
      [
        "t",
        "ry"
      ],
      [
        "ex",
        "p"
      ],
      [
        "b",
        "er"
      ],
      [
        "unt",
        "il"
      ],
      [
        "F",
        "rom"
      ],
      [
        "a",
        "ce"
      ],
      [
        "T",
        "hat"
      ],
      [
        "W",
        "hat"
      ],
      [
        "bea",
        "ut"
      ],
      [
        "t",
        "ried"
      ],
      [
        "f",
        "low"
      ],
      [
        "than",
        "ked"
      ],
      [
        "€",
        "™"
      ],
      [
        "re",
        "ad"
      ],
      [
        "be",
        "cause"
      ],
      [
        "um",
        "p"
      ],
      [
        "p",
        "t"
      ],
      [
        "in",
        "k"
      ],
      [
        "lo",
        "ts"
      ],
      [
        "c",
        "he"
      ],
      [
        "g",
        "ard"
      ],
      [
        "jo",
        "y"
      ],
      [
        "gard",
        "en"
      ],
      [
        "d",
        "y"
      ],
      [
        "t",
        "ter"
      ],
      [
        "play",
        "ed"
      ],
      [
        "e",
        "ven"
      ],
      [
        "s",
        "ur"
      ],
      [
        "L",
        "uc"
      ],
      [
        "ne",
        "ed"
      ],
      [
        "sh",
        "in"
      ],
      [
        "Luc",
        "y"
      ],
      [
        "s",
        "ha"
      ],
      [
        "co",
        "l"
      ],
      [
        "e",
        "at"
      ],
      [
        "r",
        "ed"
      ],
      [
        "p",
        "er"
      ],
      [
        "bo",
        "x"
      ],
      [
        "A",
        "nd"
      ],
      [
        "c",
        "le"
      ],
      [
        "beaut",
        "i"
      ],
      [
        "l",
        "ad"
      ],
      [
        "beauti",
        "ful"
      ],
      [
        "it",
        "s"
      ],
      [
        "call",
        "ed"
      ],
      [
        "hug",
        "ged"
      ],
      [
        "i",
        "z"
      ],
      [
        "laug",
        "hed"
      ],
      [
        "as",
        "s"
      ],
      [
        "be",
        "st"
      ],
      [
        "An",
        "na"
      ],
      [
        "sk",
        "y"
      ],
      [
        "t",
        "wo"
      ],
      [
        "le",
        "w"
      ],
      [
        "s",
        "or"
      ],
      [
        "be",
        "ar"
      ],
      [
        "y",
        "es"
      ],
      [
        "im",
        "al"
      ],
      [
        "an",
        "imal"
      ],
      [
        "Mom",
        "my"
      ],
      [
        "fa",
        "st"
      ],
      [
        "exp",
        "lo"
      ],
      [
        "b",
        "ra"
      ],
      [
        "w",
        "here"
      ],
      [
        "B",
        "ob"
      ],
      [
        "p",
        "ret"
      ],
      [
        "e",
        "ach"
      ],
      [
        "explo",
        "re"
      ],
      [
        "o",
        "l"
      ],
      [
        "f",
        "in"
      ],
      [
        "A",
        "s"
      ],
      [
        "n",
        "t"
      ],
      [
        "w",
        "on"
      ],
      [
        "an",
        "e"
      ],
      [
        "c",
        "hed"
      ],
      [
        "d",
        "on"
      ],
      [
        "b",
        "ed"
      ],
      [
        "li",
        "ved"
      ],
      [
        "e",
        "ll"
      ],
      [
        "n",
        "ice"
      ],
      [
        "be",
        "tter"
      ],
      [
        "f",
        "am"
      ],
      [
        "ad",
        "vent"
      ],
      [
        "r",
        "ong"
      ],
      [
        "u",
        "ck"
      ],
      [
        "ig",
        "h"
      ],
      [
        "ke",
        "pt"
      ],
      [
        "man",
        "y"
      ],
      [
        "bo",
        "th"
      ],
      [
        "Y",
        "es"
      ],
      [
        "A",
        "fter"
      ],
      [
        "sur",
        "pr"
      ],
      [
        "k",
        "ind"
      ],
      [
        "sm",
        "ile"
      ],
      [
        "f",
        "t"
      ],
      [
        "j",
        "ump"
      ],
      [
        "c",
        "on"
      ],
      [
        "feel",
        "ing"
      ],
      [
        "y",
        "ear"
      ],
      [
        "st",
        "ay"
      ],
      [
        "c",
        "u"
      ],
      [
        "f",
        "i"
      ],
      [
        "f",
        "lew"
      ],
      [
        "sa",
        "fe"
      ],
      [
        "lo",
        "ve"
      ],
      [
        "m",
        "um"
      ],
      [
        "a",
        "pp"
      ],
      [
        "pl",
        "ace"
      ],
      [
        "so",
        "on"
      ],
      [
        "bra",
        "ve"
      ],
      [
        "i",
        "a"
      ],
      [
        "t",
        "ru"
      ],
      [
        "im",
        "p"
      ],
      [
        "wal",
        "ked"
      ],
      [
        "is",
        "ed"
      ],
      [
        "clo",
        "s"
      ],
      [
        "st",
        "ill"
      ],
      [
        "advent",
        "ure"
      ],
      [
        "gr",
        "ound"
      ],
      [
        "fam",
        "ily"
      ],
      [
        "t",
        "ing"
      ],
      [
        "ic",
        "ed"
      ],
      [
        "f",
        "ar"
      ],
      [
        "un",
        "der"
      ],
      [
        "be",
        "fore"
      ],
      [
        "care",
        "ful"
      ],
      [
        "har",
        "d"
      ],
      [
        "lear",
        "ned"
      ],
      [
        "m",
        "or"
      ],
      [
        "ra",
        "in"
      ],
      [
        "op",
        "le"
      ],
      [
        "animal",
        "s"
      ],
      [
        "l",
        "oud"
      ],
      [
        "le",
        "t"
      ],
      [
        "J",
        "ane"
      ],
      [
        "ke",
        "ep"
      ],
      [
        "sor",
        "ry"
      ],
      [
        "wal",
        "king"
      ],
      [
        "d",
        "ed"
      ],
      [
        "go",
        "ing"
      ],
      [
        "il",
        "d"
      ],
      [
        "in",
        "e"
      ],
      [
        "wor",
        "k"
[...]
